unsigned char pd_model[] = {
  0x1c, 0x00, 0x00, 0x00, 0x54, 0x46, 0x4c, 0x33, 0x14, 0x00, 0x20, 0x00,
  0x1c, 0x00, 0x18, 0x00, 0x14, 0x00, 0x10, 0x00, 0x0c, 0x00, 0x00, 0x00,
  0x08, 0x00, 0x04, 0x00, 0x14, 0x00, 0x00, 0x00, 0x1c, 0x00, 0x00, 0x00,
  0x8c, 0x00, 0x00, 0x00, 0xe4, 0x00, 0x00, 0x00, 0x38, 0x21, 0x00, 0x00,
  0x48, 0x21, 0x00, 0x00, 0xec, 0x43, 0x00, 0x00, 0x03, 0x00, 0x00, 0x00,
  0x01, 0x00, 0x00, 0x00, 0x04, 0x00, 0x00, 0x00, 0xb6, 0xdb, 0xff, 0xff,
  0x0c, 0x00, 0x00, 0x00, 0x1c, 0x00, 0x00, 0x00, 0x3c, 0x00, 0x00, 0x00,
  0x0f, 0x00, 0x00, 0x00, 0x73, 0x65, 0x72, 0x76, 0x69, 0x6e, 0x67, 0x5f,
  0x64, 0x65, 0x66, 0x61, 0x75, 0x6c, 0x74, 0x00, 0x01, 0x00, 0x00, 0x00,
  0x04, 0x00, 0x00, 0x00, 0x90, 0xff, 0xff, 0xff, 0x1e, 0x00, 0x00, 0x00,
  0x04, 0x00, 0x00, 0x00, 0x08, 0x00, 0x00, 0x00, 0x6f, 0x75, 0x74, 0x70,
  0x75, 0x74, 0x5f, 0x30, 0x00, 0x00, 0x00, 0x00, 0x01, 0x00, 0x00, 0x00,
  0x04, 0x00, 0x00, 0x00, 0x4e, 0xdf, 0xff, 0xff, 0x04, 0x00, 0x00, 0x00,
  0x0c, 0x00, 0x00, 0x00, 0x6b, 0x65, 0x72, 0x61, 0x73, 0x5f, 0x74, 0x65,
  0x6e, 0x73, 0x6f, 0x72, 0x00, 0x00, 0x00, 0x00, 0x02, 0x00, 0x00, 0x00,
  0x34, 0x00, 0x00, 0x00, 0x04, 0x00, 0x00, 0x00, 0xdc, 0xff, 0xff, 0xff,
  0x21, 0x00, 0x00, 0x00, 0x04, 0x00, 0x00, 0x00, 0x13, 0x00, 0x00, 0x00,
  0x43, 0x4f, 0x4e, 0x56, 0x45, 0x52, 0x53, 0x49, 0x4f, 0x4e, 0x5f, 0x4d,
  0x45, 0x54, 0x41, 0x44, 0x41, 0x54, 0x41, 0x00, 0x08, 0x00, 0x0c, 0x00,
  0x08, 0x00, 0x04, 0x00, 0x08, 0x00, 0x00, 0x00, 0x20, 0x00, 0x00, 0x00,
  0x04, 0x00, 0x00, 0x00, 0x13, 0x00, 0x00, 0x00, 0x6d, 0x69, 0x6e, 0x5f,
  0x72, 0x75, 0x6e, 0x74, 0x69, 0x6d, 0x65, 0x5f, 0x76, 0x65, 0x72, 0x73,
  0x69, 0x6f, 0x6e, 0x00, 0x22, 0x00, 0x00, 0x00, 0x50, 0x20, 0x00, 0x00,
  0x48, 0x20, 0x00, 0x00, 0x34, 0x20, 0x00, 0x00, 0x10, 0x20, 0x00, 0x00,
  0xfc, 0x1f, 0x00, 0x00, 0xe0, 0x1f, 0x00, 0x00, 0xc4, 0x1f, 0x00, 0x00,
  0xa8, 0x1f, 0x00, 0x00, 0x94, 0x1f, 0x00, 0x00, 0x64, 0x1f, 0x00, 0x00,
  0xd4, 0x1e, 0x00, 0x00, 0xc4, 0x1a, 0x00, 0x00, 0x34, 0x1a, 0x00, 0x00,
  0x24, 0x06, 0x00, 0x00, 0xd4, 0x05, 0x00, 0x00, 0x14, 0x01, 0x00, 0x00,
  0x0c, 0x01, 0x00, 0x00, 0x04, 0x01, 0x00, 0x00, 0xfc, 0x00, 0x00, 0x00,
  0xf4, 0x00, 0x00, 0x00, 0xec, 0x00, 0x00, 0x00, 0xe4, 0x00, 0x00, 0x00,
  0xdc, 0x00, 0x00, 0x00, 0xd4, 0x00, 0x00, 0x00, 0xcc, 0x00, 0x00, 0x00,
  0xc4, 0x00, 0x00, 0x00, 0xbc, 0x00, 0x00, 0x00, 0xb4, 0x00, 0x00, 0x00,
  0xac, 0x00, 0x00, 0x00, 0xa4, 0x00, 0x00, 0x00, 0x9c, 0x00, 0x00, 0x00,
  0x94, 0x00, 0x00, 0x00, 0x74, 0x00, 0x00, 0x00, 0x04, 0x00, 0x00, 0x00,
  0x52, 0xe0, 0xff, 0xff, 0x04, 0x00, 0x00, 0x00, 0x60, 0x00, 0x00, 0x00,
  0x0c, 0x00, 0x00, 0x00, 0x08, 0x00, 0x0e, 0x00, 0x08, 0x00, 0x04, 0x00,
  0x08, 0x00, 0x00, 0x00, 0x10, 0x00, 0x00, 0x00, 0x28, 0x00, 0x00, 0x00,
  0x00, 0x00, 0x06, 0x00, 0x08, 0x00, 0x04, 0x00, 0x06, 0x00, 0x00, 0x00,
  0x04, 0x00, 0x00, 0x00, 0x01, 0x00, 0x00, 0x00, 0xeb, 0x03, 0x00, 0x00,
  0x0c, 0x00, 0x18, 0x00, 0x14, 0x00, 0x10, 0x00, 0x0c, 0x00, 0x04, 0x00,
  0x0c, 0x00, 0x00, 0x00, 0x7b, 0x4f, 0x78, 0x70, 0xe3, 0x31, 0x61, 0xe1,
  0x02, 0x00, 0x00, 0x00, 0x02, 0x00, 0x00, 0x00, 0x04, 0x00, 0x00, 0x00,
  0x06, 0x00, 0x00, 0x00, 0x32, 0x2e, 0x32, 0x31, 0x2e, 0x30, 0x00, 0x00,
  0xbe, 0xe0, 0xff, 0xff, 0x04, 0x00, 0x00, 0x00, 0x10, 0x00, 0x00, 0x00,
  0x31, 0x2e, 0x31, 0x34, 0x2e, 0x30, 0x00, 0x00, 0x00, 0x00, 0x00, 0x00,
  0x00, 0x00, 0x00, 0x00, 0xcc, 0xbe, 0xff, 0xff, 0xd0, 0xbe, 0xff, 0xff,
  0xd4, 0xbe, 0xff, 0xff, 0xd8, 0xbe, 0xff, 0xff, 0xdc, 0xbe, 0xff, 0xff,
  0xe0, 0xbe, 0xff, 0xff, 0xe4, 0xbe, 0xff, 0xff, 0xe8, 0xbe, 0xff, 0xff,
  0xec, 0xbe, 0xff, 0xff, 0xf0, 0xbe, 0xff, 0xff, 0xf4, 0xbe, 0xff, 0xff,
  0xf8, 0xbe, 0xff, 0xff, 0xfc, 0xbe, 0xff, 0xff, 0x00, 0xbf, 0xff, 0xff,
  0x04, 0xbf, 0xff, 0xff, 0x08, 0xbf, 0xff, 0xff, 0x1a, 0xe1, 0xff, 0xff,
  0x04, 0x00, 0x00, 0x00, 0xb0, 0x04, 0x00, 0x00, 0xed, 0xc6, 0xd0, 0xcf,
  0x1c, 0xeb, 0x18, 0x41, 0x98, 0x34, 0x13, 0x89, 0x2c, 0x12, 0x07, 0xf4,
  0x03, 0x7a, 0xd1, 0x0e, 0x74, 0xbf, 0xcf, 0x40, 0xe5, 0x0b, 0x12, 0xfd,
  0x24, 0x1c, 0xad, 0xf9, 0x27, 0x05, 0xc7, 0xcc, 0x12, 0x1d, 0xda, 0xf5,
  0x24, 0xac, 0x21, 0x81, 0xe5, 0x34, 0xd1, 0xbe, 0x68, 0xe4, 0xfd, 0xe5,
  0x24, 0x3f, 0xd1, 0x11, 0x39, 0xd3, 0xc8, 0xf1, 0x10, 0x21, 0xb4, 0x39,
  0x73, 0xc9, 0x03, 0x03, 0x28, 0xa5, 0x3b, 0x4a, 0x0f, 0x01, 0x3d, 0x2a,
  0x56, 0xdf, 0x41, 0x08, 0x2a, 0x14, 0x29, 0x30, 0x2e, 0x1f, 0x4d, 0x66,
  0x45, 0x14, 0x2d, 0x39, 0x3d, 0x5f, 0x9b, 0x0d, 0x7f, 0x4c, 0x5c, 0x23,
  0x0a, 0x62, 0xda, 0x28, 0x60, 0x3c, 0xf9, 0xe3, 0x4f, 0x4d, 0x3a, 0x32,
  0x5f, 0x10, 0x56, 0xf8, 0xe2, 0x5b, 0xf9, 0xd0, 0x7c, 0x3a, 0x11, 0x22,
  0xe7, 0x5d, 0xe5, 0x37, 0x3f, 0x47, 0x0d, 0x0f, 0xbd, 0x1b, 0x5f, 0x42,
  0xfb, 0x3e, 0xef, 0x47, 0x20, 0x4c, 0x3a, 0x04, 0x30, 0xf4, 0x61, 0x22,
  0x3b, 0x6d, 0xcf, 0x07, 0x15, 0x0e, 0xed, 0xf1, 0x03, 0xcb, 0x18, 0xe3,
  0x18, 0x31, 0xc3, 0xe9, 0x20, 0xef, 0xe0, 0x2f, 0xc7, 0xd5, 0x1b, 0x11,
  0xcf, 0x15, 0x3c, 0xde, 0x00, 0x06, 0x1b, 0x23, 0x14, 0xbf, 0x27, 0x38,
  0xf5, 0xf4, 0x26, 0xf3, 0x17, 0xc4, 0x16, 0xcd, 0x0d, 0xfe, 0x8d, 0x0a,
  0x27, 0x95, 0xda, 0x4f, 0xc0, 0xae, 0xec, 0xf4, 0xfe, 0xea, 0xb5, 0xf4,
  0x37, 0x0d, 0xe6, 0xef, 0xf2, 0x0c, 0xdf, 0x72, 0x11, 0xed, 0x7f, 0x2c,
  0xf5, 0x5d, 0x01, 0xfc, 0x50, 0x0e, 0x44, 0x1c, 0xda, 0x32, 0x08, 0x04,
  0xf9, 0x02, 0x05, 0x1f, 0x14, 0xde, 0xd3, 0xbf, 0xd7, 0x1f, 0x45, 0x25,
  0x48, 0x6d, 0x12, 0x41, 0x61, 0x1b, 0xf3, 0x2f, 0xe5, 0xf4, 0xe3, 0xda,
  0xfd, 0xfd, 0x03, 0xda, 0xe6, 0x61, 0x03, 0xee, 0x41, 0xc7, 0x59, 0xeb,
  0x17, 0xe4, 0xf4, 0x51, 0x0b, 0xb3, 0x47, 0x7f, 0x44, 0xf7, 0x36, 0xfc,
  0xd3, 0xe0, 0xce, 0x29, 0x1c, 0xf0, 0x06, 0xf6, 0x45, 0x3a, 0xa7, 0x07,
  0xfb, 0x8b, 0xeb, 0x36, 0xbe, 0x30, 0x21, 0x39, 0x1b, 0xfe, 0xa8, 0xe8,
  0xef, 0xc3, 0x10, 0x0f, 0xfe, 0xf5, 0x02, 0x0b, 0x2b, 0x15, 0x2d, 0xe6,
  0xe9, 0xf1, 0xea, 0x36, 0x03, 0x0a, 0xf3, 0x13, 0xf6, 0x07, 0x1d, 0x28,
  0x0d, 0x1a, 0x03, 0x10, 0xcf, 0xf2, 0x10, 0xc5, 0xee, 0x28, 0xbe, 0xf7,
  0x12, 0xb9, 0x21, 0x1c, 0x1c, 0x02, 0x17, 0x0d, 0x0f, 0x36, 0xf0, 0x03,
  0x18, 0xf4, 0xf5, 0xcc, 0xc3, 0xe8, 0x81, 0xca, 0x0a, 0x9e, 0xdc, 0xfa,
  0x87, 0x0d, 0x21, 0xe4, 0x14, 0xe2, 0x24, 0x4c, 0xc7, 0x5b, 0x21, 0x43,
  0xcf, 0x42, 0xeb, 0xff, 0x41, 0x22, 0xf8, 0x55, 0x1c, 0x11, 0x19, 0x0f,
  0xb0, 0xf5, 0xc0, 0xfb, 0x9a, 0x9a, 0xbb, 0xb7, 0x01, 0xce, 0xb5, 0xd4,
  0x14, 0x81, 0x10, 0x34, 0xeb, 0xd3, 0xfa, 0xc7, 0xfd, 0x49, 0xeb, 0x02,
  0x6a, 0x1f, 0x58, 0x2a, 0x29, 0x1f, 0x1a, 0xf3, 0x13, 0xa2, 0xd4, 0xdc,
  0xa4, 0xcd, 0xc9, 0xf2, 0xd2, 0x00, 0xd3, 0x22, 0x2b, 0xd4, 0x41, 0xbf,
  0xd2, 0x38, 0xbe, 0x47, 0x5b, 0xff, 0x49, 0x4b, 0x21, 0x34, 0x4f, 0x30,
  0xe6, 0x39, 0xfc, 0x10, 0xcd, 0xf5, 0x15, 0x05, 0xe0, 0x09, 0x37, 0x06,
  0x1e, 0x4a, 0xe4, 0xdf, 0x3c, 0x07, 0xed, 0x47, 0x08, 0xcb, 0x28, 0x22,
  0xd0, 0x1a, 0x15, 0x2d, 0x18, 0x05, 0x26, 0xd9, 0x0e, 0xe4, 0xc6, 0xec,
  0xfd, 0xae, 0x20, 0x08, 0x81, 0xc7, 0xe8, 0xdd, 0xf3, 0x0f, 0xf3, 0xc3,
  0x33, 0x26, 0xdf, 0xee, 0x0a, 0x0d, 0xea, 0xf0, 0x2b, 0xf8, 0x1b, 0x22,
  0x31, 0x22, 0xe5, 0x13, 0x1a, 0x3b, 0x16, 0x0b, 0x1c, 0x1e, 0xfc, 0x00,
  0xe0, 0xee, 0x00, 0xc9, 0xd6, 0x48, 0xd9, 0xaf, 0xe7, 0x1b, 0xa9, 0x0a,
  0xcb, 0x91, 0xf4, 0x0d, 0x89, 0xaf, 0xf0, 0xdb, 0xc6, 0x02, 0xd2, 0x3b,
  0x9a, 0x2c, 0xf2, 0xc4, 0x59, 0x27, 0xc5, 0xdf, 0xb7, 0xf3, 0x11, 0x0a,
  0x24, 0x63, 0x1f, 0xe0, 0xf7, 0x4c, 0xdf, 0x71, 0x2a, 0xa9, 0x15, 0xd6,
  0xf2, 0x54, 0x05, 0x29, 0xf7, 0xf2, 0x55, 0x2b, 0xee, 0x2b, 0xd7, 0x12,
  0x10, 0x24, 0xed, 0x1f, 0x0b, 0xbb, 0x1c, 0xf9, 0xfc, 0x2e, 0x2b, 0xe4,
  0x3c, 0xed, 0xfa, 0xfd, 0x81, 0xbd, 0xfd, 0xc6, 0x48, 0xbc, 0xdb, 0x49,
  0xbd, 0xdc, 0x0e, 0xec, 0xfa, 0xf9, 0xca, 0xd5, 0x32, 0x20, 0xda, 0xd8,
  0xc5, 0xb9, 0x0b, 0xd4, 0xa2, 0x48, 0xf2, 0xd7, 0x20, 0xc8, 0x9a, 0x34,
  0xd7, 0xe6, 0x47, 0x0b, 0xe8, 0x56, 0x05, 0xd1, 0x33, 0x13, 0x2f, 0xec,
  0x51, 0xce, 0x33, 0x06, 0xa2, 0x04, 0xf3, 0x81, 0x24, 0xc6, 0xb4, 0x47,
  0xd3, 0xf1, 0x53, 0xcb, 0xf2, 0xfd, 0x88, 0xba, 0x2f, 0xe5, 0x00, 0x22,
  0xb1, 0xe3, 0xe3, 0xa5, 0x44, 0x33, 0xcb, 0x1e, 0x07, 0x10, 0x07, 0xd4,
  0xc2, 0xf9, 0xea, 0xf4, 0xf9, 0x19, 0xf4, 0x3e, 0xf2, 0x42, 0x1a, 0xed,
  0x50, 0x40, 0x07, 0xf4, 0x1e, 0x00, 0x15, 0x3e, 0x11, 0x34, 0x1a, 0x07,
  0x9b, 0xc1, 0x21, 0xe1, 0xcf, 0x05, 0x47, 0xda, 0xca, 0x13, 0x03, 0xb6,
  0x02, 0xee, 0xc4, 0xd3, 0x81, 0x20, 0x15, 0xd8, 0x27, 0xcc, 0x0a, 0xff,
  0xd3, 0x49, 0x21, 0x26, 0x5d, 0x30, 0x02, 0x26, 0xf3, 0x30, 0x4e, 0xe2,
  0xbe, 0x46, 0xdd, 0x2b, 0x1e, 0xe6, 0x66, 0xb4, 0x16, 0x52, 0xb8, 0xbf,
  0x0e, 0xb9, 0xe1, 0x43, 0xf6, 0x0d, 0x1b, 0xcf, 0x16, 0x54, 0xf2, 0xfc,
  0x7f, 0x13, 0x10, 0xec, 0x2d, 0x0f, 0xec, 0xd7, 0x11, 0x3a, 0xc0, 0x2a,
  0x4c, 0xcf, 0xdb, 0x12, 0x11, 0x9b, 0xe0, 0x12, 0x1f, 0x44, 0xa9, 0x3d,
  0xf6, 0xd7, 0x18, 0xcb, 0x2c, 0x1c, 0x1b, 0x23, 0x26, 0x01, 0xfc, 0xff,
  0xce, 0x25, 0x02, 0xf5, 0x10, 0xdd, 0x52, 0x32, 0xc2, 0x53, 0xe4, 0xe7,
  0x4e, 0xbd, 0xd8, 0xe8, 0x0b, 0x0e, 0x49, 0xc1, 0xf4, 0x45, 0xcb, 0xd6,
  0xfe, 0xc2, 0xe9, 0x0c, 0x02, 0xd6, 0xe8, 0xc1, 0xd7, 0x2e, 0xdd, 0xe2,
  0xfd, 0x9a, 0xdb, 0xe2, 0x07, 0xe3, 0xf9, 0xd1, 0xe8, 0x12, 0xe8, 0x45,
  0xae, 0x2e, 0xd8, 0xd5, 0xdc, 0x0e, 0xe2, 0xfa, 0xfa, 0xfc, 0xdd, 0x1c,
  0xeb, 0xc5, 0xe4, 0x03, 0x33, 0x3f, 0x07, 0xea, 0xe2, 0x0f, 0x2d, 0x00,
  0x0d, 0x1e, 0xd7, 0x1b, 0x59, 0xd7, 0x03, 0x7f, 0xf9, 0x1a, 0x4d, 0x33,
  0x1a, 0x45, 0x08, 0x24, 0x64, 0x21, 0x2c, 0xdb, 0xde, 0xcc, 0x1d, 0xb4,
  0x15, 0x0c, 0xc7, 0xcc, 0x0d, 0xd3, 0x0b, 0x09, 0xf0, 0x08, 0x2a, 0x28,
  0x27, 0x04, 0xe7, 0x38, 0xe0, 0xed, 0x3b, 0xd2, 0x02, 0xc2, 0x33, 0xf1,
  0xa5, 0xf8, 0xfb, 0xd8, 0xc4, 0x2f, 0x39, 0xb8, 0x10, 0xf1, 0x0f, 0xa6,
  0xdf, 0x43, 0xec, 0xf3, 0xfc, 0x3d, 0xfa, 0xbb, 0x3e, 0xeb, 0x14, 0x4e,
  0x32, 0x19, 0x20, 0x31, 0x44, 0xea, 0x07, 0x59, 0xec, 0xd6, 0xfd, 0xf5,
  0xfd, 0xda, 0x1e, 0x1e, 0xe3, 0xc5, 0x48, 0x13, 0xb3, 0xc7, 0xf2, 0xd2,
  0x1d, 0xc5, 0x2d, 0xf2, 0xab, 0x05, 0x13, 0xe3, 0x17, 0x81, 0x43, 0x36,
  0x24, 0xf3, 0x02, 0xfc, 0x16, 0x39, 0x4f, 0x3e, 0x7f, 0x14, 0x79, 0x4c,
  0xfd, 0xed, 0x2d, 0x46, 0xc3, 0xe5, 0x5e, 0xf2, 0x2d, 0xff, 0xfa, 0x43,
  0xe0, 0xcf, 0x26, 0xa3, 0x08, 0xe7, 0xf1, 0x25, 0x3c, 0x22, 0x4a, 0x36,
  0xf0, 0xcd, 0xf1, 0x0a, 0x98, 0xb5, 0xcf, 0xbe, 0xf0, 0xea, 0xbc, 0xfc,
  0x0b, 0x64, 0xff, 0x0b, 0x00, 0x35, 0x09, 0xfa, 0xb0, 0x1d, 0xb6, 0xb2,
  0x00, 0x89, 0xc2, 0x34, 0x43, 0xfc, 0xed, 0xda, 0xfd, 0x1f, 0x4d, 0x45,
  0xbb, 0x48, 0xf5, 0x81, 0xef, 0xe1, 0xd0, 0x0b, 0xbe, 0x9f, 0xed, 0x27,
  0x58, 0xed, 0x9e, 0x04, 0xcc, 0x00, 0xc9, 0x0f, 0xdb, 0xe3, 0x0b, 0x99,
  0xf5, 0x27, 0xad, 0x2b, 0x54, 0xdf, 0x3b, 0x0e, 0xd0, 0xf0, 0x27, 0xcb,
  0x18, 0x24, 0xbb, 0xbd, 0x26, 0xc9, 0xb3, 0xbf, 0xe1, 0xee, 0xad, 0x0a,
  0xc0, 0xe1, 0x09, 0x41, 0xc2, 0xf8, 0x9d, 0x1f, 0xd9, 0xcd, 0xf2, 0xc1,
  0xca, 0x3e, 0xd7, 0xe6, 0xf3, 0xd2, 0xfe, 0xc5, 0x3b, 0x6e, 0x0e, 0x14,
  0x23, 0x32, 0xe5, 0xcb, 0x14, 0x29, 0x07, 0x63, 0x41, 0xbf, 0x27, 0x4e,
  0x49, 0x5d, 0x23, 0xf6, 0x5a, 0xe1, 0xee, 0x4e, 0x27, 0x22, 0x74, 0xe9,
  0x21, 0x20, 0xe2, 0x0d, 0xce, 0xda, 0xf6, 0xdd, 0x2a, 0xc3, 0xe3, 0xfd,
  0x53, 0x0d, 0xba, 0xcc, 0x30, 0xd2, 0x29, 0x2c, 0x4d, 0x18, 0x48, 0x6a,
  0x1c, 0x4e, 0x39, 0x46, 0x05, 0x58, 0x2e, 0x71, 0x20, 0x19, 0x7f, 0x12,
  0x3a, 0x68, 0xfd, 0xbe, 0x70, 0x16, 0x2d, 0x0c, 0xb0, 0xfe, 0x3c, 0xd8,
  0xd9, 0xe1, 0xb2, 0xc1, 0x23, 0xfc, 0xe2, 0xfb, 0xd6, 0xe5, 0xff, 0xff,
  0x04, 0x00, 0x00, 0x00, 0x40, 0x00, 0x00, 0x00, 0xfc, 0xff, 0xff, 0xff,
  0xd2, 0xff, 0xff, 0xff, 0x0e, 0x00, 0x00, 0x00, 0x79, 0xfe, 0xff, 0xff,
  0xd1, 0x00, 0x00, 0x00, 0x53, 0x02, 0x00, 0x00, 0x09, 0x00, 0x00, 0x00,
  0x69, 0x04, 0x00, 0x00, 0x55, 0x01, 0x00, 0x00, 0x03, 0x00, 0x00, 0x00,
  0x0c, 0x00, 0x00, 0x00, 0xce, 0x03, 0x00, 0x00, 0xf1, 0xff, 0xff, 0xff,
  0xe2, 0x00, 0x00, 0x00, 0x4e, 0x01, 0x00, 0x00, 0x8a, 0x00, 0x00, 0x00,
  0x22, 0xe6, 0xff, 0xff, 0x04, 0x00, 0x00, 0x00, 0x00, 0x14, 0x00, 0x00,
  0x35, 0x34, 0x2e, 0xef, 0xf8, 0xab, 0x45, 0xcb, 0x1c, 0xf9, 0xee, 0xf2,
  0xc3, 0xcb, 0x0e, 0xfa, 0x2c, 0xde, 0xe0, 0x94, 0x17, 0xc8, 0xe7, 0x06,
  0xdf, 0x31, 0x39, 0x1c, 0x4a, 0xdb, 0x05, 0x19, 0x0a, 0xe5, 0x19, 0xb2,
  0xea, 0xe5, 0x06, 0x02, 0xe7, 0x38, 0xfd, 0x30, 0x2e, 0x10, 0xe8, 0xbd,
  0x44, 0xd3, 0x2d, 0x0e, 0xee, 0xc6, 0x2b, 0xbe, 0x51, 0x04, 0x1b, 0x19,
  0x32, 0xad, 0x13, 0xb6, 0x15, 0x1a, 0x58, 0xce, 0x3f, 0xc9, 0x51, 0xe6,
  0x5c, 0x0b, 0x00, 0xd7, 0x16, 0x81, 0x1f, 0x36, 0x42, 0x37, 0x01, 0x1d,
  0x03, 0x1b, 0x29, 0xf4, 0x4b, 0xf1, 0x04, 0xfd, 0xdb, 0x91, 0x27, 0x18,
  0x24, 0xe6, 0x23, 0xe0, 0x30, 0xc2, 0x2f, 0x1a, 0xe1, 0x31, 0x4d, 0x09,
  0xdf, 0xc6, 0x13, 0xcd, 0x04, 0x55, 0xce, 0xea, 0xc3, 0xe1, 0xf9, 0x22,
  0xae, 0x30, 0x55, 0xe8, 0x43, 0xcc, 0x22, 0xe7, 0xf0, 0x1c, 0x15, 0xb4,
  0x07, 0xc2, 0x20, 0xeb, 0xbe, 0x25, 0x0b, 0x3b, 0x6d, 0x1b, 0xdf, 0xec,
  0x0d, 0x1a, 0xdb, 0xbe, 0xd3, 0xeb, 0x2d, 0x12, 0xe1, 0x2e, 0x02, 0x30,
  0x3c, 0x07, 0x14, 0xe2, 0xe5, 0xcc, 0x48, 0xef, 0xc3, 0xe8, 0x2e, 0xf5,
  0x2f, 0xc5, 0xb9, 0x82, 0xda, 0xf2, 0xe2, 0xd2, 0xee, 0x8f, 0x45, 0xaa,
  0xdb, 0xfc, 0x27, 0xfd, 0x5b, 0x2a, 0xfe, 0xee, 0x9f, 0xda, 0xc0, 0x3d,
  0xcb, 0x96, 0x42, 0x36, 0xe1, 0x2a, 0x4a, 0x4d, 0x73, 0x02, 0x99, 0xaa,
  0xeb, 0x30, 0x12, 0xe4, 0xdf, 0xf6, 0x66, 0xf0, 0x3f, 0x4e, 0x27, 0x23,
  0x0b, 0x17, 0x05, 0xfe, 0x31, 0xf5, 0xc1, 0x29, 0x0c, 0x0f, 0xee, 0x2c,
  0x7f, 0x03, 0x16, 0xd2, 0x3b, 0xcf, 0x0b, 0x04, 0xf6, 0x31, 0xa4, 0x30,
  0x13, 0xcb, 0x02, 0x3a, 0x25, 0x3c, 0xe0, 0x26, 0xfb, 0xb5, 0xc4, 0xe4,
  0xbc, 0xff, 0x94, 0xe7, 0xbe, 0xbe, 0x0b, 0x17, 0x34, 0xfd, 0x0a, 0xf8,
  0x5f, 0xfd, 0xa3, 0x0b, 0xb1, 0x52, 0x93, 0xcb, 0xf1, 0x93, 0x09, 0xbc,
  0xf7, 0xcd, 0xeb, 0x16, 0x5e, 0xac, 0xbd, 0x12, 0xdc, 0x2f, 0xd6, 0xe1,
  0x0d, 0x9a, 0x51, 0x2a, 0x41, 0x12, 0xaf, 0xee, 0x3b, 0x9a, 0xef, 0x0b,
  0xbc, 0x26, 0xd3, 0xe4, 0x2d, 0xb1, 0x52, 0xd1, 0x52, 0x34, 0x0d, 0x0a,
  0x35, 0x8c, 0x91, 0xda, 0x27, 0x0f, 0xc4, 0xc5, 0x2f, 0x1f, 0xe9, 0xb1,
  0xe7, 0xd8, 0x0b, 0x32, 0xca, 0xdc, 0x0d, 0x00, 0x06, 0xbc, 0x5d, 0x4d,
  0x17, 0xe7, 0x7f, 0xe5, 0xa9, 0xf9, 0xda, 0xd7, 0x0c, 0x16, 0xe9, 0xfc,
  0x0c, 0x8c, 0x05, 0x3a, 0x47, 0xfc, 0xf7, 0xfd, 0xe8, 0xad, 0x70, 0x4d,
  0xd4, 0x36, 0x53, 0xeb, 0xee, 0xab, 0xed, 0xaf, 0xfe, 0xdf, 0x06, 0x1f,
  0xca, 0x9c, 0x68, 0x52, 0x19, 0xfc, 0x29, 0x58, 0x30, 0x94, 0x0e, 0x3d,
  0x55, 0x15, 0xe2, 0xee, 0xb1, 0x13, 0x03, 0xbc, 0xa1, 0x53, 0xe1, 0x2a,
  0xf9, 0x9a, 0x03, 0x3a, 0x29, 0x8f, 0xfc, 0xdf, 0xf2, 0xe0, 0x06, 0x32,
  0xba, 0x43, 0x67, 0x41, 0x22, 0xac, 0xdd, 0xa2, 0xde, 0x9a, 0x1a, 0x1e,
  0x05, 0x13, 0x25, 0xc2, 0xa6, 0x71, 0x03, 0x60, 0x2c, 0xe7, 0x33, 0x07,
  0x67, 0xbe, 0x19, 0xa1, 0xe6, 0x4c, 0xd7, 0x1a, 0xdd, 0x14, 0x5e, 0x01,
  0xed, 0x90, 0xda, 0xd6, 0x42, 0x96, 0xf2, 0xa7, 0x43, 0xf0, 0xf3, 0x05,
  0x07, 0x1f, 0xfc, 0x27, 0x3a, 0xb6, 0x77, 0x1b, 0x30, 0xf0, 0x1a, 0xe6,
  0xf0, 0x07, 0x00, 0x26, 0xc4, 0x36, 0xf1, 0xb7, 0xf5, 0x8f, 0x68, 0xb7,
  0x00, 0xeb, 0x8c, 0x07, 0x01, 0x01, 0xdc, 0x2a, 0xce, 0xc2, 0xfb, 0x24,
  0xe4, 0xfa, 0x28, 0xac, 0x2d, 0x4b, 0x93, 0x56, 0x38, 0x1d, 0xe9, 0xf8,
  0xbf, 0xb3, 0xbf, 0x34, 0xfb, 0x15, 0x4a, 0xe5, 0x18, 0xf3, 0xf0, 0x2e,
  0xf2, 0x45, 0x0e, 0x1a, 0xb2, 0xa0, 0x0c, 0xd8, 0xfa, 0xf2, 0x3f, 0xe0,
  0xc0, 0x0f, 0xb1, 0x46, 0xf0, 0x3a, 0x8d, 0x38, 0xfc, 0xfd, 0x22, 0x42,
  0x28, 0x70, 0x51, 0xac, 0xd4, 0x46, 0xa2, 0xd7, 0xf9, 0x33, 0xc7, 0xff,
  0xe9, 0x20, 0xce, 0x23, 0x27, 0xda, 0x5c, 0xdd, 0xb0, 0xe8, 0xfb, 0xfe,
  0x48, 0xff, 0xcf, 0x23, 0x81, 0xb4, 0x36, 0xee, 0xdf, 0xe6, 0xcc, 0xb4,
  0x1a, 0x1f, 0x9d, 0x1b, 0x2f, 0x35, 0xb2, 0x2a, 0xda, 0x22, 0x06, 0x63,
  0x3d, 0xe4, 0x58, 0x03, 0x04, 0xf5, 0xde, 0x44, 0xf4, 0x5e, 0xb9, 0x4f,
  0x9c, 0x28, 0xc6, 0xef, 0x1b, 0x41, 0x50, 0xeb, 0x14, 0xd5, 0xd7, 0xf6,
  0xec, 0x05, 0xe1, 0x0e, 0xc4, 0xb2, 0xf5, 0xf0, 0xf3, 0xfa, 0xec, 0xca,
  0xc2, 0x16, 0x92, 0x63, 0xf3, 0x58, 0xc9, 0xbd, 0xd2, 0x1a, 0x17, 0x3a,
  0x2d, 0x57, 0x4b, 0xed, 0xd9, 0x28, 0xe3, 0x3c, 0xe2, 0x2d, 0x2d, 0x0f,
  0x12, 0x1c, 0xdf, 0xda, 0xb9, 0xcc, 0xc8, 0x30, 0xa2, 0xc2, 0x2a, 0x1f,
  0x07, 0xee, 0xd1, 0xcd, 0xe6, 0xd6, 0xf9, 0xce, 0xe2, 0x0b, 0xec, 0x3b,
  0xb9, 0xef, 0xd2, 0x43, 0x22, 0xc8, 0x02, 0x1c, 0x0a, 0x1a, 0xe5, 0x1a,
  0xbd, 0xdf, 0xe1, 0x00, 0xee, 0xf3, 0xd5, 0x04, 0x3a, 0x08, 0xbd, 0x12,
  0xdf, 0x01, 0xed, 0xd0, 0xcc, 0x4e, 0x81, 0xce, 0xd6, 0xfb, 0xa6, 0x2f,
  0x2b, 0x5f, 0xf0, 0xd6, 0x0c, 0xc6, 0x0a, 0x08, 0xe5, 0xd0, 0xca, 0x01,
  0x02, 0x04, 0xb2, 0x2b, 0x0b, 0x06, 0xd5, 0xed, 0xe0, 0xb2, 0xf7, 0xd7,
  0x08, 0x1c, 0xb0, 0xdb, 0xdb, 0x25, 0xc6, 0x05, 0x19, 0x21, 0x12, 0xd7,
  0xf2, 0xbe, 0xed, 0x9b, 0xf7, 0x24, 0xbc, 0x16, 0xd9, 0x16, 0xe6, 0x22,
  0x36, 0x03, 0xc0, 0x36, 0xff, 0xf9, 0x03, 0x15, 0xc8, 0xe9, 0xc2, 0xee,
  0xd6, 0x24, 0xdd, 0x25, 0x68, 0x35, 0xe6, 0xf9, 0xf8, 0xe0, 0xfe, 0x0a,
  0xaa, 0xda, 0xfd, 0x22, 0xdb, 0xcb, 0x32, 0x2f, 0x24, 0x5a, 0xcc, 0x03,
  0x18, 0xd6, 0xf9, 0xa7, 0xf5, 0x4f, 0x05, 0x1f, 0x16, 0x11, 0x11, 0x0f,
  0x21, 0x10, 0x9d, 0xb7, 0xc3, 0x25, 0xb9, 0x2c, 0x12, 0x19, 0x40, 0x04,
  0x01, 0x46, 0x8e, 0xc1, 0xdd, 0x19, 0xff, 0xf7, 0x8b, 0x06, 0xdd, 0xdb,
  0xcf, 0x06, 0x6e, 0xfe, 0xff, 0xf7, 0x0c, 0x20, 0xf2, 0x73, 0xa9, 0x46,
  0xf8, 0xe4, 0xd8, 0x4b, 0x27, 0x24, 0x0c, 0xf1, 0x00, 0xad, 0xd4, 0x2f,
  0x62, 0x2c, 0xa0, 0xe8, 0xa2, 0x2e, 0xfd, 0x48, 0x2f, 0xfa, 0x51, 0xec,
  0xd7, 0x17, 0xa2, 0x54, 0x4d, 0x09, 0xca, 0x07, 0x81, 0xe1, 0xbb, 0x5d,
  0xb1, 0xe8, 0x14, 0xa5, 0x97, 0x9e, 0x19, 0x32, 0xcd, 0x2a, 0x06, 0xed,
  0xa6, 0xb2, 0x01, 0x6d, 0x03, 0x48, 0xfc, 0xd0, 0xb1, 0x2e, 0xfd, 0x16,
  0x39, 0x13, 0x9b, 0xbd, 0xa3, 0x0e, 0x29, 0x10, 0x03, 0x3d, 0xe7, 0xc5,
  0x50, 0xf9, 0x92, 0xd8, 0xea, 0x2d, 0x08, 0x35, 0xa4, 0xc0, 0x15, 0xd8,
  0x07, 0xdb, 0x4c, 0x05, 0xe9, 0xb6, 0xb8, 0x2f, 0xbf, 0x13, 0xe5, 0x01,
  0xda, 0x2e, 0xe2, 0xf9, 0x0b, 0xde, 0x15, 0x15, 0xca, 0x04, 0x9e, 0x4d,
  0x32, 0x06, 0x00, 0x2f, 0xf3, 0xc6, 0x13, 0x18, 0xf2, 0xf3, 0xe6, 0x2e,
  0x0e, 0x26, 0xa6, 0x0c, 0x21, 0x53, 0xe4, 0x34, 0xd2, 0xf8, 0x28, 0xb5,
  0xc4, 0x02, 0x31, 0xfe, 0xbf, 0x16, 0xd1, 0x4e, 0x36, 0xd0, 0xba, 0x17,
  0x1c, 0xb4, 0x18, 0x1a, 0xfc, 0xf0, 0xfc, 0xf2, 0xff, 0xea, 0xa6, 0x39,
  0x43, 0x19, 0xca, 0x16, 0xe8, 0x0d, 0x03, 0xef, 0xbe, 0x11, 0x37, 0x18,
  0x03, 0xf4, 0xc2, 0x37, 0x09, 0x53, 0xed, 0xd9, 0xfe, 0xe8, 0xcf, 0xe4,
  0xec, 0x7f, 0xe3, 0x9c, 0xfd, 0xf5, 0xe6, 0xdf, 0x19, 0x37, 0x0e, 0xf1,
  0xc7, 0xe3, 0x17, 0xd7, 0xf2, 0xdb, 0x03, 0x0b, 0xfb, 0x18, 0xe2, 0x19,
  0x3f, 0x1e, 0xb7, 0x29, 0xc9, 0x15, 0x16, 0x03, 0x0a, 0xf5, 0x0e, 0xdd,
  0x1e, 0xd5, 0x00, 0x36, 0xe2, 0x0a, 0xd4, 0x00, 0xc2, 0x07, 0xe2, 0x19,
  0xd8, 0x0f, 0x2c, 0xde, 0x0b, 0x03, 0xf1, 0xd6, 0xd6, 0x0c, 0xa3, 0xfa,
  0xf1, 0xb9, 0xdb, 0xe7, 0xfc, 0x0c, 0x1c, 0xd4, 0xc4, 0xe2, 0xfb, 0x12,
  0x00, 0x04, 0x00, 0x31, 0xcf, 0xf2, 0xef, 0x1d, 0xd3, 0x30, 0xf8, 0xd8,
  0x17, 0x41, 0xc6, 0x3e, 0xfa, 0x2f, 0xc3, 0xa6, 0xc3, 0xbf, 0x09, 0xd0,
  0xd3, 0x0a, 0x35, 0xe2, 0xda, 0xcb, 0x3f, 0x36, 0x19, 0xc7, 0xf7, 0x3b,
  0xcc, 0xf5, 0x18, 0x33, 0xb4, 0x47, 0x19, 0xae, 0xdc, 0xb8, 0x22, 0x5b,
  0x42, 0x1a, 0xa8, 0x0a, 0xec, 0xd2, 0x0b, 0xe5, 0x81, 0x32, 0x29, 0xa3,
  0x2d, 0xe3, 0xd5, 0x37, 0x2d, 0x3f, 0xc3, 0xc1, 0xca, 0xc8, 0xbd, 0x00,
  0xbb, 0x5c, 0xd1, 0xc4, 0xf4, 0x39, 0x08, 0xf9, 0x02, 0x39, 0xea, 0xe6,
  0x0b, 0xb4, 0x13, 0xf0, 0xe7, 0x08, 0xf0, 0xd6, 0x12, 0xd8, 0xae, 0x58,
  0x1b, 0x1a, 0xb6, 0xcc, 0x06, 0x23, 0xde, 0x18, 0xe8, 0x3f, 0xef, 0x1b,
  0xda, 0x0c, 0xbd, 0x40, 0xf6, 0x54, 0xad, 0xd9, 0xbf, 0xe6, 0xc8, 0x30,
  0xf1, 0x08, 0x22, 0xf6, 0xd5, 0x21, 0x02, 0xf3, 0xf4, 0xe4, 0xd6, 0x1a,
  0xfc, 0x1a, 0xbb, 0xfc, 0xde, 0xf7, 0x13, 0xfd, 0x9c, 0x19, 0xb1, 0x0d,
  0x0c, 0xda, 0xcc, 0xdd, 0xb6, 0xdc, 0x23, 0x1e, 0xd9, 0x52, 0xff, 0xba,
  0xe1, 0xf6, 0xc0, 0x41, 0x22, 0x18, 0xbc, 0xd3, 0xca, 0x22, 0xd8, 0xfc,
  0xfd, 0x2a, 0x28, 0xe3, 0x04, 0xcc, 0x06, 0x33, 0xcb, 0x55, 0xe2, 0xbc,
  0xf3, 0x18, 0x9b, 0x05, 0x12, 0x08, 0x2a, 0xaf, 0x43, 0x3a, 0xde, 0xf4,
  0x50, 0xc2, 0x19, 0x03, 0xe1, 0x49, 0xcf, 0x21, 0xc4, 0x9c, 0x62, 0x0c,
  0x44, 0xee, 0xe4, 0xdc, 0xec, 0xd3, 0xe3, 0x3f, 0x32, 0x2c, 0xfb, 0x31,
  0xe4, 0xc8, 0x17, 0x0f, 0x38, 0x0b, 0x21, 0x91, 0x26, 0xf9, 0xd5, 0xe8,
  0xe5, 0x27, 0x6d, 0x2c, 0xe2, 0xd0, 0x78, 0x0e, 0x13, 0x34, 0x0c, 0xf1,
  0xc6, 0xbd, 0x37, 0xb1, 0xa3, 0xe2, 0x59, 0xe4, 0x0e, 0x28, 0x1f, 0xa3,
  0x1b, 0xb7, 0xdc, 0xcf, 0x34, 0xe0, 0x33, 0x0e, 0x0f, 0xc8, 0xdb, 0x58,
  0x51, 0x2f, 0xd1, 0x17, 0xfd, 0xff, 0x2c, 0xf6, 0xf7, 0x3c, 0xe0, 0xb0,
  0x42, 0xcc, 0xd4, 0x0f, 0x1c, 0xbe, 0x4c, 0xc3, 0x00, 0xf0, 0x07, 0xf1,
  0x09, 0xe2, 0xc7, 0x99, 0x17, 0x2c, 0xfc, 0x49, 0xff, 0x81, 0xf3, 0xb1,
  0x1d, 0x03, 0x3e, 0xf4, 0x27, 0x32, 0xd7, 0x2f, 0xbb, 0xed, 0x37, 0x2f,
  0xf5, 0xa4, 0x11, 0xe8, 0x60, 0x14, 0x56, 0xc2, 0x04, 0xa6, 0xd7, 0xe2,
  0xad, 0x3a, 0x0b, 0xec, 0x1a, 0xc0, 0x3c, 0xce, 0xe9, 0x18, 0xd7, 0x0d,
  0x35, 0xef, 0x60, 0x01, 0xc3, 0x1a, 0x67, 0xbb, 0x1d, 0xfc, 0x23, 0x2f,
  0x2d, 0xc4, 0x89, 0x2c, 0x03, 0x4e, 0xe3, 0xe6, 0xa6, 0xd2, 0x21, 0x38,
  0xf4, 0xfe, 0xde, 0xfc, 0x34, 0xf8, 0xe2, 0x17, 0x24, 0x35, 0xe7, 0x3c,
  0xc8, 0x02, 0xf1, 0x34, 0xca, 0x08, 0x46, 0xb1, 0x05, 0xc2, 0x0b, 0x29,
  0x3f, 0x32, 0xbc, 0x27, 0xd2, 0x0c, 0xbe, 0x1b, 0x0a, 0x0a, 0x2c, 0xa8,
  0x06, 0x18, 0xad, 0x09, 0x33, 0x06, 0xf7, 0xe6, 0xd9, 0xa5, 0xfc, 0x49,
  0xfa, 0xea, 0xe4, 0xf9, 0xfa, 0xe2, 0xc5, 0xde, 0xf2, 0x12, 0xb2, 0x1a,
  0x9e, 0xf9, 0xff, 0xf3, 0x02, 0xff, 0x28, 0x10, 0x17, 0x37, 0x08, 0xf0,
  0xfb, 0x26, 0xd4, 0x3a, 0x01, 0xe4, 0x21, 0x28, 0x20, 0x42, 0x3b, 0xcf,
  0x0d, 0x01, 0xa1, 0x36, 0x09, 0x20, 0xb7, 0xf0, 0xcc, 0xf4, 0xea, 0x0b,
  0x04, 0xd0, 0x15, 0xe1, 0xbb, 0x1b, 0xf1, 0x43, 0x10, 0x08, 0x81, 0x01,
  0xc9, 0x10, 0x29, 0x4d, 0x00, 0x08, 0x42, 0xc9, 0x03, 0xe9, 0xf1, 0x24,
  0x3a, 0xfa, 0xeb, 0x0b, 0xad, 0xec, 0xc8, 0x30, 0xe0, 0x34, 0x4f, 0x48,
  0x21, 0xd2, 0xba, 0x11, 0xe9, 0x65, 0x02, 0xec, 0xe9, 0xb1, 0xf4, 0xe3,
  0xf7, 0xf7, 0xeb, 0xf6, 0xca, 0x01, 0x10, 0x54, 0xcc, 0x1f, 0x17, 0x21,
  0x12, 0xf9, 0x35, 0x02, 0xa8, 0xb2, 0xdd, 0xde, 0x9a, 0xbb, 0xea, 0x05,
  0xcf, 0xd0, 0xbc, 0x19, 0x12, 0xdd, 0xc8, 0xdc, 0xb7, 0x14, 0xc4, 0xe6,
  0xef, 0xdd, 0xc8, 0x42, 0x43, 0x43, 0xcb, 0xcf, 0xb6, 0xd6, 0xc7, 0xe0,
  0xf7, 0x3f, 0xe6, 0xc2, 0x16, 0xea, 0xfc, 0x1f, 0xdb, 0x6d, 0xbb, 0x23,
  0x48, 0x43, 0xec, 0x10, 0x17, 0x5c, 0xa0, 0xae, 0xb5, 0xc2, 0x21, 0x4a,
  0x4e, 0x0c, 0x1e, 0xda, 0x03, 0xd9, 0xd1, 0xf8, 0xec, 0xe6, 0xe6, 0x97,
  0xe6, 0x02, 0xac, 0x44, 0x36, 0xd2, 0xb4, 0xed, 0xdd, 0xad, 0x24, 0xf3,
  0x09, 0x1c, 0xfe, 0xbd, 0x07, 0xbe, 0xaf, 0x2f, 0x41, 0xe8, 0xad, 0x10,
  0x08, 0x14, 0x0f, 0x27, 0x07, 0xee, 0xc3, 0xae, 0x22, 0x21, 0xfc, 0xfa,
  0x03, 0x2a, 0xf5, 0xdd, 0x40, 0x11, 0xd7, 0x2f, 0xd8, 0x1b, 0xd0, 0xf0,
  0xd8, 0xb7, 0xfb, 0x28, 0x23, 0x39, 0xef, 0x02, 0x2f, 0x20, 0xdc, 0xa6,
  0xdf, 0x38, 0x0d, 0xdd, 0x91, 0xcd, 0x24, 0x7f, 0x55, 0xf5, 0xad, 0x16,
  0x3b, 0xec, 0x11, 0x10, 0xd2, 0x40, 0xcb, 0xd0, 0x13, 0xc9, 0x43, 0xbf,
  0x13, 0x26, 0xd7, 0xfc, 0xff, 0x4f, 0x0e, 0x21, 0xea, 0xb1, 0x41, 0x1c,
  0x2e, 0xef, 0xff, 0x2a, 0x56, 0x11, 0xf1, 0xb2, 0x0f, 0xe7, 0x1d, 0x24,
  0x50, 0xdf, 0xf8, 0xd8, 0x24, 0xb9, 0xe6, 0xe0, 0x45, 0x3d, 0xce, 0x1f,
  0xf5, 0x45, 0xdf, 0x40, 0xec, 0x03, 0xd9, 0xeb, 0xfe, 0x15, 0xd9, 0xfd,
  0x60, 0xf5, 0xfb, 0xee, 0x55, 0x19, 0xd0, 0xcc, 0x25, 0x8a, 0x7f, 0x47,
  0x59, 0x0b, 0x37, 0x47, 0x44, 0x0f, 0x16, 0x03, 0x23, 0x1d, 0xf9, 0xf0,
  0xc6, 0x96, 0x14, 0xd3, 0x48, 0x3b, 0x1e, 0x16, 0x06, 0x25, 0x3a, 0x12,
  0xa9, 0xe5, 0x39, 0xcd, 0x47, 0x8c, 0x0e, 0xcb, 0xe2, 0x29, 0x17, 0x0d,
  0x53, 0x16, 0x32, 0xfd, 0xd7, 0x16, 0x12, 0x01, 0xd3, 0xc2, 0x12, 0xa0,
  0x43, 0xce, 0x64, 0xea, 0x4b, 0xf9, 0xe4, 0x04, 0xe6, 0xf7, 0xf5, 0xfc,
  0x04, 0xc1, 0xda, 0xdb, 0x1d, 0x22, 0x46, 0xe4, 0x0d, 0xd4, 0xc5, 0x19,
  0xf1, 0x2a, 0xd2, 0x10, 0x50, 0xc1, 0xf1, 0x2c, 0x1d, 0xc0, 0xd0, 0xde,
  0xf3, 0x0e, 0x11, 0x0b, 0xb4, 0xcf, 0x16, 0x36, 0xdd, 0xab, 0x58, 0xcf,
  0x59, 0x5e, 0x0d, 0xb5, 0xe4, 0x0e, 0x27, 0x10, 0xfe, 0xd6, 0x7f, 0xd1,
  0x18, 0xd1, 0x46, 0x00, 0x35, 0x46, 0xf9, 0xa8, 0x29, 0xd6, 0xfd, 0xe0,
  0xf9, 0x1a, 0x35, 0xfe, 0x42, 0xd6, 0x25, 0xcd, 0x02, 0xfd, 0x0e, 0xbf,
  0xe4, 0xf1, 0x4a, 0x37, 0x20, 0x19, 0x56, 0xf1, 0x4e, 0x0b, 0xe1, 0xce,
  0x34, 0x34, 0x06, 0xb3, 0x2a, 0xc3, 0xfd, 0xf4, 0xe4, 0x01, 0x45, 0xd5,
  0x2f, 0xc0, 0xfa, 0xdc, 0xf8, 0xd8, 0xf2, 0xbb, 0x1d, 0xcc, 0x35, 0x02,
  0xea, 0x52, 0x2c, 0xfc, 0xe4, 0xc3, 0x1c, 0x0e, 0x42, 0xef, 0xe7, 0xcf,
  0x0b, 0xb3, 0x30, 0xe6, 0xd6, 0x3f, 0x02, 0x20, 0x17, 0xf6, 0x18, 0x16,
  0x14, 0xa3, 0x1e, 0xd3, 0x13, 0x96, 0x2e, 0xbb, 0x15, 0x1b, 0x1c, 0x1b,
  0xfe, 0xd0, 0x33, 0x1b, 0x1b, 0xc3, 0x4e, 0xc5, 0xd5, 0xe4, 0x30, 0xcc,
  0xc8, 0x30, 0x38, 0x13, 0x0a, 0xb1, 0xcd, 0x19, 0x19, 0xeb, 0x17, 0xd8,
  0x1f, 0xdf, 0xf6, 0xb9, 0x23, 0x26, 0x1d, 0xb0, 0x13, 0xa9, 0x24, 0xc0,
  0x21, 0x28, 0x31, 0xea, 0x08, 0x0a, 0xf2, 0x03, 0x2e, 0x0c, 0x36, 0xf0,
  0xe2, 0xdf, 0x05, 0xd5, 0x24, 0xe5, 0x2e, 0x38, 0xd6, 0xc8, 0xf2, 0xfd,
  0x16, 0xf4, 0xfe, 0x22, 0xf8, 0x16, 0xc3, 0x60, 0xf6, 0xe7, 0x52, 0x5c,
  0x1d, 0xea, 0x36, 0xc7, 0xfc, 0x10, 0xc3, 0xe6, 0xb0, 0xd8, 0xc8, 0x66,
  0xe2, 0x00, 0x1d, 0xea, 0xee, 0xb3, 0xf9, 0x9f, 0x2f, 0x1e, 0x33, 0x25,
  0x13, 0xd2, 0xcb, 0x05, 0xd1, 0x47, 0xb1, 0x2c, 0x0f, 0xf7, 0x30, 0xcf,
  0xd0, 0x3e, 0x40, 0x2c, 0xfc, 0xb7, 0x00, 0x1b, 0xcf, 0x35, 0xf5, 0x25,
  0x20, 0x2b, 0xe8, 0xb2, 0xf8, 0x30, 0x55, 0x0e, 0xd5, 0x1e, 0xe7, 0x41,
  0xc9, 0x40, 0x15, 0xe5, 0x2c, 0xde, 0xf4, 0xe7, 0xfd, 0x14, 0x79, 0x28,
  0x25, 0xf4, 0xea, 0x15, 0xfd, 0x12, 0x2f, 0x2f, 0x39, 0x20, 0x29, 0xa8,
  0xf1, 0x41, 0x4f, 0x1f, 0xee, 0xd7, 0x28, 0x30, 0x12, 0x67, 0x47, 0x21,
  0x38, 0x03, 0xd0, 0x22, 0x05, 0x37, 0x54, 0xfb, 0xe9, 0x25, 0x00, 0x1d,
  0xe0, 0x4f, 0xc6, 0x01, 0x14, 0x38, 0x15, 0x2c, 0xa5, 0x26, 0x2a, 0xe2,
  0xe4, 0xc5, 0xf6, 0x3b, 0x35, 0x61, 0xb6, 0x27, 0xad, 0xba, 0x7f, 0xed,
  0x0c, 0xf3, 0xef, 0xf9, 0x04, 0xb0, 0xf9, 0x32, 0x1c, 0x43, 0xf3, 0xb0,
  0x4f, 0xbe, 0x32, 0xef, 0x0b, 0x2c, 0x50, 0x06, 0x7f, 0x05, 0x1b, 0xce,
  0x63, 0x34, 0x49, 0xcb, 0x0e, 0xb7, 0xde, 0xce, 0x09, 0xde, 0x67, 0x06,
  0x26, 0xfa, 0x17, 0x15, 0x40, 0xea, 0xc4, 0x92, 0xe0, 0xe6, 0x44, 0xfb,
  0x1a, 0xde, 0x37, 0xee, 0x30, 0xe0, 0xc6, 0x34, 0x49, 0xf4, 0xf5, 0xd0,
  0xfb, 0xbb, 0x62, 0x01, 0xf8, 0x18, 0x5a, 0xd4, 0x00, 0xf3, 0x0c, 0xe9,
  0x3c, 0xce, 0xc5, 0xac, 0xec, 0xef, 0x44, 0xdc, 0x20, 0x3b, 0xdc, 0xf9,
  0x1d, 0xf1, 0xca, 0xc6, 0x64, 0x45, 0xd4, 0xcc, 0xec, 0xe0, 0x61, 0xdc,
  0xec, 0x38, 0x28, 0x02, 0x4b, 0xdf, 0xf2, 0xf8, 0x02, 0x0c, 0x2b, 0xdc,
  0xee, 0x94, 0x1c, 0xc4, 0x13, 0x24, 0x54, 0x17, 0xe5, 0xf5, 0x18, 0xe0,
  0x52, 0xec, 0x23, 0xe4, 0x27, 0xc2, 0x3b, 0xe3, 0x01, 0x0f, 0x1d, 0x00,
  0x3a, 0xec, 0xe9, 0xfe, 0x03, 0x2d, 0x23, 0xb0, 0x05, 0xca, 0xf4, 0x02,
  0x00, 0x4c, 0x52, 0xdd, 0xee, 0xd2, 0x09, 0xe8, 0x54, 0x01, 0xd1, 0xef,
  0x1b, 0xe3, 0x2a, 0xcb, 0x41, 0x19, 0x04, 0xe1, 0xf3, 0xf1, 0xf8, 0xca,
  0xb2, 0xfb, 0x21, 0xe6, 0x26, 0xd0, 0x2e, 0x37, 0xfa, 0x2a, 0x4f, 0x19,
  0x00, 0x0a, 0xdd, 0xd5, 0xaf, 0xe5, 0x2e, 0xed, 0xb6, 0xd9, 0x0a, 0x38,
  0x32, 0x3e, 0xe3, 0xcf, 0x0e, 0x48, 0xb3, 0xf9, 0x08, 0xdc, 0x1c, 0x15,
  0xc7, 0xff, 0x33, 0xd0, 0xf1, 0xf8, 0x30, 0x24, 0x27, 0xf2, 0xbc, 0xd8,
  0xcf, 0x3a, 0xef, 0xd5, 0xea, 0xb7, 0x01, 0x99, 0x53, 0x0b, 0xe6, 0xd2,
  0x1b, 0x3b, 0x00, 0xfa, 0xdd, 0x01, 0x27, 0xdd, 0x0a, 0xfd, 0x13, 0x0e,
  0x31, 0x36, 0xf9, 0xda, 0x25, 0xf1, 0xdd, 0x34, 0x32, 0x1b, 0xaf, 0xe1,
  0xba, 0xeb, 0xc8, 0xbb, 0x03, 0x61, 0x5d, 0x38, 0xe8, 0xcb, 0xd0, 0x42,
  0x5a, 0xf7, 0xc3, 0xf5, 0xe6, 0x0a, 0xf5, 0x12, 0x41, 0x33, 0x61, 0x35,
  0xe0, 0xaa, 0x25, 0x2c, 0xd7, 0xe0, 0xc1, 0x3f, 0x45, 0x4d, 0x10, 0x62,
  0xee, 0x1e, 0x7f, 0x15, 0x54, 0xc5, 0x42, 0xf3, 0x32, 0x11, 0xfa, 0xfc,
  0x21, 0x0e, 0x05, 0x1d, 0xee, 0xee, 0x06, 0x40, 0xf8, 0x0a, 0xf1, 0x0c,
  0xc9, 0x15, 0x43, 0x40, 0x2c, 0xf9, 0xdb, 0x7b, 0xec, 0x34, 0x61, 0x13,
  0x19, 0x0f, 0xd2, 0xeb, 0x13, 0x12, 0xe3, 0x00, 0x16, 0x55, 0xa6, 0x07,
  0x3a, 0x34, 0xd7, 0xb3, 0xb2, 0xda, 0x0e, 0xe5, 0x0c, 0x19, 0xe2, 0x43,
  0xf9, 0x42, 0x9b, 0x23, 0x3b, 0xe2, 0x27, 0xca, 0xae, 0x38, 0xfd, 0xbe,
  0xb0, 0xb4, 0xe8, 0x3c, 0x09, 0xe1, 0xf4, 0xad, 0x1b, 0xe4, 0xf8, 0x03,
  0xec, 0xc9, 0x07, 0x00, 0xe8, 0x0f, 0xb6, 0x5f, 0x25, 0x3f, 0xc7, 0xcf,
  0x27, 0xfb, 0xea, 0xdc, 0xc7, 0x41, 0xc6, 0xf3, 0x0f, 0xad, 0xc9, 0x1d,
  0xf9, 0x3a, 0x04, 0x08, 0xe9, 0xea, 0x0c, 0x31, 0xdf, 0x20, 0x08, 0xcc,
  0xfc, 0xcc, 0xd3, 0x31, 0x31, 0x2d, 0xbc, 0x0f, 0xf8, 0x05, 0x1e, 0xcc,
  0xdb, 0xc1, 0xd7, 0x0b, 0xce, 0xb8, 0xce, 0x6b, 0xbe, 0x05, 0x1a, 0x08,
  0xe3, 0x15, 0x27, 0xbe, 0xe1, 0x17, 0x1e, 0xb3, 0x8d, 0xa5, 0xd5, 0xeb,
  0x36, 0xd7, 0xbe, 0xd0, 0xfc, 0xe5, 0x21, 0x06, 0xba, 0x08, 0xb4, 0x1b,
  0x0c, 0x0c, 0xb9, 0xe2, 0x7f, 0xfb, 0xcc, 0xff, 0x0e, 0x19, 0x13, 0xdc,
  0xda, 0xe3, 0xe7, 0xf6, 0xc8, 0xb0, 0xa9, 0x23, 0x36, 0x15, 0x20, 0x26,
  0x37, 0x1e, 0xd6, 0xcb, 0xeb, 0x29, 0xbb, 0xfc, 0xfe, 0x2a, 0xd0, 0x48,
  0xf7, 0x77, 0xe8, 0x3d, 0x0f, 0x0c, 0x07, 0x20, 0xae, 0x47, 0xd5, 0x48,
  0xb0, 0x24, 0xc4, 0xc0, 0x0d, 0x0e, 0x9d, 0x67, 0x27, 0xbe, 0xf1, 0x2c,
  0x9f, 0xe3, 0xf8, 0xcd, 0xad, 0xfd, 0x05, 0x36, 0x37, 0xad, 0x89, 0x2e,
  0x98, 0x1e, 0xfe, 0xed, 0xdd, 0xfe, 0xae, 0xe4, 0xcd, 0xce, 0xaf, 0x30,
  0x4e, 0xb9, 0xc3, 0xe2, 0x07, 0xdc, 0xa0, 0xce, 0x08, 0x62, 0x8a, 0xc6,
  0xf7, 0x1e, 0xe4, 0xee, 0x1c, 0x01, 0x1d, 0xf1, 0xe0, 0x0d, 0x09, 0x22,
  0xd5, 0xef, 0x90, 0x2a, 0xfb, 0x53, 0xe5, 0x28, 0xdc, 0x6d, 0xb8, 0xed,
  0xf6, 0x36, 0x1f, 0xdc, 0x0a, 0xea, 0xc9, 0xc2, 0x10, 0x23, 0xf1, 0x30,
  0xc9, 0x02, 0xfb, 0x0e, 0xd0, 0x06, 0x01, 0xa6, 0xc0, 0xdd, 0xaf, 0x1a,
  0xe8, 0xe5, 0xde, 0xe4, 0x4c, 0x3b, 0x0f, 0xb4, 0xb7, 0x8e, 0x1f, 0xc6,
  0xb7, 0xf7, 0x04, 0x51, 0x85, 0x58, 0x0a, 0x49, 0x0d, 0xc2, 0x11, 0xaa,
  0xfb, 0xe1, 0xb1, 0x33, 0xb3, 0xda, 0xfa, 0x39, 0xb6, 0xf3, 0xdc, 0xcd,
  0x7f, 0x28, 0x19, 0x0f, 0xf5, 0xb1, 0x0b, 0xe0, 0x9f, 0x12, 0xc2, 0xe4,
  0xf9, 0xd4, 0xe5, 0x0a, 0xfe, 0xeb, 0xf4, 0x29, 0x30, 0x06, 0x0f, 0xa6,
  0xbc, 0x42, 0x97, 0xc9, 0xfb, 0x1f, 0x21, 0xdc, 0x4b, 0x08, 0x0e, 0x37,
  0x4b, 0x0e, 0x1d, 0xf4, 0x04, 0x56, 0xa6, 0xc6, 0xd2, 0xf7, 0xf3, 0x44,
  0xec, 0x42, 0x04, 0x4e, 0x47, 0xe3, 0x01, 0xbe, 0x1a, 0x06, 0xe1, 0xb4,
  0xf2, 0xb3, 0xf3, 0x4e, 0x46, 0x3b, 0xec, 0x31, 0x22, 0x22, 0xc1, 0xfc,
  0x21, 0xe3, 0xf2, 0xe2, 0xc9, 0xdc, 0x13, 0xfb, 0x11, 0x25, 0x04, 0xc1,
  0x67, 0x1d, 0x30, 0x10, 0xc9, 0x3e, 0xf1, 0xdf, 0xb2, 0xde, 0x52, 0xf2,
  0x0d, 0xf6, 0xe7, 0x4d, 0x7f, 0x28, 0xb4, 0x2d, 0xf9, 0x1b, 0xd5, 0x2c,
  0xea, 0xa5, 0x29, 0x0e, 0x35, 0xd9, 0xc8, 0x4b, 0x07, 0xb0, 0xe0, 0xf0,
  0xe6, 0x10, 0x9c, 0x05, 0xde, 0x93, 0xed, 0x13, 0x05, 0x3f, 0xdb, 0x26,
  0x5a, 0x01, 0xed, 0x20, 0x0c, 0x1f, 0xf1, 0x1c, 0xc7, 0xdf, 0x14, 0x31,
  0xda, 0x24, 0xcb, 0x3b, 0xf9, 0x0c, 0xd1, 0xc2, 0xdb, 0x55, 0xd1, 0x05,
  0xa4, 0x9b, 0xed, 0x03, 0x1a, 0x2c, 0x31, 0x7a, 0x57, 0xf7, 0xc9, 0x0e,
  0x27, 0x21, 0xe0, 0xed, 0xf0, 0x29, 0x09, 0x13, 0xb5, 0xbb, 0xf5, 0xf7,
  0x41, 0x2e, 0xfe, 0x39, 0x2d, 0x90, 0x20, 0xf2, 0x4f, 0xe2, 0xf6, 0x21,
  0xab, 0xd7, 0x46, 0x98, 0xd5, 0x4f, 0x0c, 0xd5, 0x52, 0xf6, 0xe2, 0x14,
  0x28, 0xcf, 0xfd, 0x3b, 0xe2, 0xb5, 0x5d, 0xe0, 0xde, 0x4e, 0xf6, 0xd1,
  0x12, 0x97, 0xf2, 0x20, 0x50, 0xcf, 0xdd, 0xd6, 0x0a, 0xe8, 0xd2, 0xaf,
  0x5d, 0x2c, 0x25, 0xd9, 0x03, 0xab, 0xb7, 0xde, 0x00, 0xea, 0x03, 0xbe,
  0x04, 0xcb, 0x29, 0x11, 0xf7, 0x76, 0x36, 0xd4, 0x3b, 0x88, 0x43, 0x07,
  0x41, 0x35, 0x1e, 0xcf, 0xb6, 0xef, 0x33, 0xd1, 0x0b, 0x3a, 0x68, 0x23,
  0x61, 0xdc, 0x0f, 0xdf, 0x51, 0x3b, 0x07, 0xc3, 0x96, 0xd1, 0x42, 0xf6,
  0x20, 0x3a, 0xe7, 0x30, 0xd9, 0xda, 0xd8, 0x44, 0x28, 0x32, 0xf1, 0x22,
  0xa0, 0xb8, 0x02, 0x21, 0x37, 0x5f, 0x2a, 0xb9, 0x55, 0xa5, 0x40, 0x06,
  0x1a, 0x37, 0x36, 0x2a, 0xaf, 0xf0, 0x24, 0x9b, 0x20, 0xf7, 0xff, 0x0e,
  0x01, 0x90, 0xd8, 0xb3, 0x41, 0xd4, 0x40, 0x22, 0xc9, 0xb5, 0xfd, 0xdd,
  0x14, 0x2c, 0x45, 0x36, 0xdf, 0x81, 0x1f, 0xbe, 0x29, 0xef, 0x53, 0xde,
  0x2a, 0xfe, 0x4f, 0xb7, 0x5d, 0xdc, 0x39, 0xcc, 0x3e, 0xb1, 0xe5, 0xb8,
  0x11, 0x2b, 0x32, 0xc3, 0xc8, 0x0b, 0x1f, 0xd3, 0x5d, 0x55, 0xf0, 0xb9,
  0x23, 0xee, 0xfc, 0x0a, 0x42, 0x15, 0x16, 0x0c, 0x33, 0xef, 0xeb, 0xd2,
  0x08, 0x45, 0x1b, 0xe3, 0x39, 0x81, 0x11, 0xd5, 0x0d, 0x0b, 0x4a, 0xb6,
  0x20, 0xe0, 0xdf, 0xee, 0xc6, 0xd4, 0x02, 0xf1, 0x5d, 0xd3, 0xcf, 0xde,
  0x13, 0x3b, 0xd8, 0x81, 0x2b, 0xab, 0x7b, 0x26, 0x07, 0xeb, 0x1d, 0xb5,
  0x65, 0xae, 0xe4, 0xfa, 0x5f, 0x18, 0x63, 0xa5, 0x1c, 0xb4, 0xe5, 0x0c,
  0x04, 0xd9, 0x34, 0x94, 0x28, 0xb5, 0x54, 0xfc, 0xe5, 0xd7, 0x00, 0xd9,
  0xd7, 0xd9, 0x03, 0x04, 0xf2, 0x5e, 0xe1, 0xd2, 0xd0, 0xdf, 0xb8, 0x13,
  0x08, 0x0c, 0x4a, 0x92, 0xcb, 0xcc, 0x36, 0x0d, 0x43, 0x24, 0x69, 0xc0,
  0x40, 0x8d, 0xf6, 0xf3, 0x02, 0x32, 0x05, 0xe1, 0xf8, 0xf3, 0x05, 0x06,
  0xff, 0x25, 0x24, 0xfa, 0x17, 0xb3, 0x25, 0xcf, 0x09, 0xe4, 0x32, 0x93,
  0xb3, 0xa0, 0x7b, 0xec, 0x27, 0x4e, 0x0b, 0xcc, 0x0e, 0xbb, 0x1f, 0xbb,
  0xf5, 0x04, 0xd2, 0xc0, 0x0b, 0xb9, 0x1b, 0xce, 0x18, 0xfc, 0x31, 0xca,
  0x0b, 0x0d, 0x17, 0xc3, 0x58, 0xff, 0x42, 0xf0, 0x17, 0xff, 0xfd, 0x07,
  0x6f, 0x19, 0x04, 0xb1, 0x3b, 0xbf, 0xaa, 0xe1, 0x41, 0xf4, 0xf7, 0xc2,
  0x3a, 0xdd, 0x0b, 0x25, 0x1c, 0x11, 0xe2, 0xf9, 0x3c, 0xfb, 0x14, 0xd8,
  0xe1, 0x00, 0x31, 0xfb, 0x0f, 0xe4, 0x2c, 0x25, 0x2d, 0x2c, 0x3c, 0xb4,
  0x1d, 0xf7, 0xe9, 0xe9, 0x1d, 0x3b, 0x01, 0x03, 0x22, 0x09, 0x04, 0xd9,
  0x64, 0xfb, 0x0c, 0xfe, 0xea, 0xab, 0xf6, 0x24, 0x1b, 0xf0, 0xf1, 0xd8,
  0x07, 0xc9, 0x05, 0x27, 0xe6, 0x18, 0x34, 0xd2, 0x67, 0xee, 0x25, 0x14,
  0x4f, 0x2b, 0xc7, 0xeb, 0xcc, 0xe4, 0x5a, 0xbc, 0xdf, 0x21, 0xd6, 0xc9,
  0x5f, 0x17, 0xf4, 0xe6, 0x3d, 0x05, 0xd9, 0xa6, 0xd2, 0xc9, 0xf6, 0x30,
  0xf7, 0x29, 0x08, 0xe6, 0x25, 0x1e, 0xdd, 0xf0, 0x0b, 0xf6, 0xf4, 0xb5,
  0x2a, 0xc7, 0xf4, 0xb4, 0x48, 0x05, 0xfe, 0xd3, 0x14, 0x0d, 0xc7, 0xdb,
  0x26, 0x39, 0x3d, 0xd2, 0x25, 0xeb, 0xcc, 0xfd, 0x7f, 0x31, 0x1c, 0xd0,
  0xec, 0xe9, 0x07, 0xbe, 0x8a, 0xac, 0xe8, 0x17, 0x11, 0xe8, 0xf9, 0xff,
  0xff, 0x09, 0x21, 0x07, 0xb4, 0x25, 0xef, 0xc0, 0xb1, 0xbb, 0xc7, 0x40,
  0x3d, 0x35, 0xff, 0xf9, 0xfa, 0xcd, 0x0e, 0xf8, 0xcb, 0x05, 0xbb, 0xc8,
  0xef, 0xc2, 0xd3, 0x27, 0x31, 0xdb, 0xc1, 0xf2, 0x04, 0x22, 0xdf, 0xf9,
  0xf3, 0x38, 0xc8, 0xdb, 0xf4, 0xc6, 0xfc, 0x2c, 0x0a, 0x26, 0x1a, 0xe4,
  0x2e, 0x0b, 0x13, 0xc8, 0xf4, 0x06, 0xcc, 0xd7, 0xcc, 0xfc, 0x43, 0x2f,
  0x06, 0x2f, 0xdc, 0x13, 0x1d, 0xe5, 0xc3, 0xeb, 0x0b, 0x2b, 0xec, 0x04,
  0x8e, 0xaf, 0x11, 0x14, 0xee, 0xe5, 0xdf, 0x06, 0x1b, 0x14, 0x22, 0xd3,
  0xaf, 0x0f, 0xc5, 0xd4, 0xec, 0xed, 0xbe, 0x1d, 0x29, 0x08, 0xb5, 0x41,
  0xea, 0x24, 0xdc, 0x29, 0xc2, 0x36, 0x0b, 0xd1, 0xc5, 0xc5, 0xe6, 0x56,
  0x48, 0x39, 0xc5, 0x15, 0xff, 0xf4, 0x01, 0xf0, 0xc6, 0x3d, 0xde, 0xdf,
  0xe5, 0xa9, 0x1d, 0x3a, 0x31, 0x06, 0xea, 0xef, 0x34, 0x27, 0x07, 0xb2,
  0xe5, 0xe1, 0xe4, 0xd0, 0xe1, 0xf3, 0x1f, 0x7f, 0x02, 0x3f, 0x04, 0x2d,
  0xf7, 0x1f, 0xca, 0x0c, 0xcf, 0x48, 0x00, 0xa7, 0x55, 0xbf, 0xbe, 0x0c,
  0xd7, 0x47, 0x23, 0x4c, 0xe9, 0xdd, 0x24, 0x2b, 0x28, 0x03, 0x29, 0x71,
  0x06, 0xe5, 0xec, 0xd8, 0x19, 0x27, 0xee, 0x11, 0xf8, 0xf9, 0x1b, 0xdc,
  0xf6, 0x22, 0x16, 0x21, 0xb8, 0xe1, 0x1b, 0xb2, 0xcd, 0x02, 0xe2, 0x55,
  0x01, 0xfe, 0x17, 0x01, 0xf8, 0x1a, 0x48, 0x06, 0xa5, 0xf9, 0x22, 0xf2,
  0xdf, 0x29, 0x35, 0xe2, 0xea, 0xd6, 0xa0, 0x58, 0x40, 0xf4, 0x1d, 0xcf,
  0xe4, 0xbc, 0xfe, 0xb9, 0x04, 0x1c, 0xb8, 0x3e, 0xe0, 0x2c, 0xfb, 0x5d,
  0x60, 0x17, 0xd7, 0xaf, 0x12, 0x17, 0xf7, 0xd2, 0x17, 0xaa, 0x9a, 0x54,
  0xb7, 0x1f, 0x81, 0x3b, 0xe1, 0x33, 0xd9, 0x52, 0x5f, 0x01, 0x41, 0xba,
  0x14, 0x4f, 0x17, 0xc8, 0xb8, 0x02, 0xbf, 0x01, 0x49, 0xe4, 0x1b, 0x00,
  0xe1, 0xf8, 0x3e, 0x36, 0xdf, 0x11, 0xe8, 0x3a, 0xa3, 0x53, 0x1c, 0x01,
  0x29, 0xfe, 0x00, 0x1c, 0x45, 0xf2, 0x42, 0x2f, 0x0b, 0xed, 0xc6, 0x58,
  0xe2, 0x29, 0xd5, 0x70, 0x13, 0x55, 0x4e, 0x1e, 0xf1, 0x1f, 0x21, 0x22,
  0xaf, 0xc5, 0x11, 0x12, 0x19, 0xcb, 0x1a, 0xfc, 0x6f, 0xfb, 0x0b, 0x0e,
  0x19, 0xcc, 0x79, 0xe5, 0xf0, 0xd7, 0x2a, 0x20, 0xb2, 0xce, 0x0f, 0x1d,
  0x56, 0xb8, 0xe0, 0x2e, 0xd2, 0xd2, 0x06, 0xfd, 0x98, 0x3c, 0xf4, 0xdf,
  0xc8, 0x98, 0x04, 0xf9, 0xf3, 0x1d, 0x81, 0x21, 0xf0, 0x17, 0x02, 0xa6,
  0xcf, 0xd6, 0xdb, 0xd4, 0xab, 0xdd, 0xdb, 0x33, 0xa0, 0xec, 0xd4, 0xeb,
  0xf6, 0x47, 0x41, 0xf2, 0xec, 0xde, 0x21, 0x2e, 0xb1, 0xf2, 0x97, 0xd4,
  0x07, 0xf8, 0x27, 0x04, 0x27, 0x5b, 0xfc, 0x8e, 0xdb, 0xc7, 0x2f, 0xf4,
  0xad, 0xe5, 0x49, 0xdc, 0x25, 0x16, 0xab, 0x72, 0xbf, 0x03, 0x07, 0x08,
  0x0f, 0xeb, 0xa5, 0x20, 0x9d, 0xaf, 0x2c, 0x2a, 0x5f, 0x42, 0x19, 0x07,
  0x07, 0x0f, 0x60, 0xab, 0xba, 0xf3, 0xaf, 0x23, 0xe9, 0xfa, 0xb6, 0xf7,
  0x57, 0x1f, 0xbc, 0x7c, 0x95, 0xe7, 0x09, 0x2e, 0xaa, 0x17, 0xbc, 0x3d,
  0x07, 0xfa, 0xe9, 0x02, 0x50, 0xbb, 0x32, 0x46, 0x0f, 0x47, 0xe7, 0x09,
  0x91, 0x01, 0x4a, 0xec, 0x04, 0xb3, 0xc8, 0x42, 0xef, 0x17, 0x26, 0xcc,
  0xce, 0xf0, 0xcc, 0xc3, 0xde, 0xb5, 0x06, 0x4f, 0xc0, 0x68, 0xfa, 0x5e,
  0xbc, 0xe7, 0x12, 0xf3, 0x4f, 0x02, 0x9d, 0xe3, 0x3c, 0x09, 0x57, 0xdb,
  0x4b, 0x3c, 0xdd, 0xc4, 0x71, 0xb9, 0xc7, 0x0f, 0x07, 0x49, 0x1e, 0xbb,
  0x3c, 0xca, 0xd2, 0xb4, 0x59, 0xbb, 0x7a, 0xd5, 0x4a, 0xff, 0xff, 0x04,
  0xe1, 0x1b, 0x2a, 0xca, 0xf6, 0x2e, 0x1c, 0x28, 0x1a, 0xfd, 0x41, 0x0a,
  0x52, 0xc8, 0xed, 0xba, 0xf2, 0x06, 0x31, 0x0f, 0x4d, 0x1f, 0x36, 0x06,
  0x06, 0x0f, 0x62, 0x2a, 0xf8, 0xf0, 0xf1, 0x19, 0x66, 0x12, 0xee, 0x13,
  0xf6, 0xf5, 0xfb, 0xd1, 0x05, 0xcf, 0x6d, 0xab, 0x0c, 0x1d, 0x0c, 0xec,
  0x63, 0x21, 0xd9, 0x89, 0xd9, 0xfc, 0x4c, 0xda, 0xbb, 0x08, 0x49, 0xe6,
  0x3f, 0x29, 0xd5, 0xb9, 0xf7, 0xec, 0xaf, 0x86, 0x2e, 0xd2, 0x2a, 0xc7,
  0x58, 0xdb, 0x6f, 0xf9, 0x37, 0x33, 0xec, 0xe5, 0xed, 0x0c, 0x49, 0xd0,
  0x17, 0xc5, 0xeb, 0xdc, 0x30, 0x0b, 0x19, 0xca, 0x2b, 0x14, 0xcd, 0xef,
  0x08, 0xf7, 0x13, 0x1d, 0x07, 0x0c, 0x1b, 0x81, 0x33, 0x05, 0x28, 0xb9,
  0x1a, 0xc5, 0xf3, 0xb8, 0x27, 0x38, 0xd6, 0xba, 0x5c, 0xfc, 0xc4, 0xb1,
  0x08, 0xe9, 0xea, 0xa0, 0x19, 0xe0, 0x46, 0xf9, 0x43, 0x37, 0xf3, 0x22,
  0xbf, 0xee, 0x0d, 0xc1, 0xab, 0x4c, 0xe9, 0x98, 0xa7, 0xb4, 0xe4, 0x19,
  0xfc, 0x2f, 0xbf, 0xf5, 0x03, 0x04, 0x1e, 0xf5, 0xb1, 0xf5, 0x2a, 0x85,
  0xa9, 0x31, 0xaa, 0xff, 0x23, 0x52, 0xa5, 0x06, 0xa7, 0xf8, 0x1b, 0x2c,
  0xbd, 0x23, 0xfb, 0xfb, 0x39, 0xd9, 0x12, 0x6d, 0xc9, 0xf2, 0xdc, 0x89,
  0xfe, 0xaf, 0x09, 0xd5, 0xfa, 0xca, 0xe2, 0x3a, 0x10, 0x06, 0xb3, 0xee,
  0x8e, 0x4a, 0x06, 0xa5, 0xeb, 0xd9, 0x22, 0xe5, 0xe4, 0x1f, 0x36, 0x0f,
  0x67, 0xda, 0xef, 0x42, 0xef, 0xc2, 0xf1, 0x19, 0x81, 0xe4, 0x55, 0xf2,
  0x05, 0xbe, 0x18, 0x40, 0x42, 0xfb, 0xc3, 0x26, 0x97, 0x3e, 0xdf, 0x21,
  0xf8, 0x09, 0xd5, 0xb6, 0x1a, 0xc2, 0xcf, 0x3c, 0x06, 0xcc, 0xa5, 0xff,
  0xc4, 0x54, 0xaf, 0x00, 0x1e, 0x9a, 0xec, 0x4f, 0xd9, 0x28, 0xe1, 0xdd,
  0xff, 0x06, 0x28, 0x0c, 0x37, 0xce, 0x8f, 0xff, 0xd9, 0x13, 0xd4, 0x12,
  0xed, 0xef, 0xc3, 0xf4, 0xb4, 0x15, 0x1f, 0xeb, 0xee, 0x07, 0xa4, 0xd5,
  0x10, 0xd8, 0xfd, 0x1e, 0xc5, 0xd7, 0xd5, 0x0a, 0xcd, 0xc8, 0xf7, 0x61,
  0xfc, 0x02, 0x3d, 0x16, 0xfc, 0xd2, 0xe4, 0x5b, 0xf2, 0x25, 0xd4, 0x11,
  0x54, 0x0b, 0xef, 0x14, 0x51, 0x3a, 0x0d, 0xdc, 0x1e, 0x0a, 0x26, 0x2b,
  0xee, 0x39, 0xd7, 0xd6, 0x37, 0x56, 0xa2, 0xfb, 0xdb, 0xeb, 0xe7, 0xce,
  0xbc, 0x0f, 0x09, 0x1f, 0xe7, 0x4b, 0xeb, 0x16, 0xfe, 0x1d, 0x0b, 0xdf,
  0x05, 0xe8, 0x39, 0x0c, 0xf0, 0x1a, 0x57, 0x1c, 0x1b, 0x21, 0x36, 0x01,
  0xef, 0x2f, 0xb3, 0x3d, 0xca, 0x1f, 0x05, 0x3b, 0xf1, 0xca, 0x61, 0xf5,
  0xfd, 0xcf, 0x37, 0x1d, 0x33, 0xe1, 0xcf, 0xfd, 0x2d, 0xd7, 0x2e, 0xf0,
  0x3b, 0x42, 0x46, 0x40, 0xf8, 0x37, 0x00, 0x2a, 0x40, 0xea, 0x2a, 0x43,
  0x35, 0xf1, 0x2e, 0xb9, 0xde, 0xc4, 0x24, 0xd3, 0xf1, 0x18, 0xeb, 0xf8,
  0x1d, 0x64, 0xc4, 0x04, 0x23, 0xfe, 0x06, 0xbf, 0xde, 0xde, 0x5b, 0x0e,
  0xef, 0x3b, 0xe6, 0x22, 0x42, 0xf6, 0xd6, 0xf6, 0xdf, 0xfd, 0xe9, 0x34,
  0xd1, 0x56, 0x2d, 0x7f, 0xdb, 0x1c, 0x36, 0xff, 0x43, 0x2e, 0xfc, 0xf1,
  0x2e, 0x05, 0x48, 0xc3, 0x04, 0x39, 0x12, 0x18, 0xeb, 0x1b, 0xec, 0x35,
  0x35, 0xe0, 0x07, 0xd9, 0x3d, 0x19, 0xff, 0x0a, 0x03, 0xba, 0x2e, 0x81,
  0x32, 0x4a, 0xd6, 0xe1, 0xb4, 0xac, 0x3e, 0x33, 0x17, 0x02, 0x0c, 0x2b,
  0xbb, 0xca, 0x1f, 0xc6, 0x4b, 0x30, 0xd8, 0xfc, 0x1c, 0xa2, 0xce, 0x1f,
  0xed, 0x67, 0xe2, 0x24, 0xe6, 0xbc, 0xfc, 0xed, 0x00, 0x1c, 0x68, 0xea,
  0x24, 0xe7, 0x0a, 0xda, 0x1e, 0xff, 0xee, 0xd7, 0x26, 0xdb, 0xf2, 0x19,
  0x16, 0x1a, 0x49, 0xdc, 0xe5, 0xdb, 0xbc, 0x1a, 0x03, 0x23, 0xe0, 0x13,
  0xe2, 0xc2, 0x52, 0xbc, 0x5e, 0x2e, 0x4f, 0x21, 0x34, 0xfa, 0xff, 0x25,
  0xe5, 0x31, 0x16, 0x0d, 0x24, 0x0b, 0x26, 0xd2, 0x09, 0x26, 0x56, 0x16,
  0x2d, 0xbb, 0xf1, 0xff, 0xff, 0x0d, 0xfd, 0xca, 0x31, 0xaa, 0x27, 0x0d,
  0xf8, 0x13, 0x25, 0x1a, 0x33, 0xaf, 0x00, 0x17, 0x34, 0x25, 0x15, 0xfa,
  0xcb, 0xcd, 0x2c, 0x9c, 0xec, 0x37, 0xd6, 0xde, 0xf3, 0x05, 0xd1, 0xce,
  0xe6, 0xf9, 0x3f, 0x0c, 0xf6, 0x9f, 0x22, 0xe0, 0xff, 0x4d, 0xe9, 0xd1,
  0xc4, 0x0e, 0x2f, 0x29, 0x15, 0xe7, 0xfa, 0x20, 0x2e, 0xf2, 0xd9, 0xa8,
  0x1e, 0xf9, 0x2f, 0xaf, 0xe4, 0xa6, 0x06, 0x1c, 0x07, 0x65, 0xee, 0xe4,
  0xf1, 0xeb, 0xec, 0x03, 0xa1, 0x56, 0x31, 0x16, 0x39, 0xd8, 0xeb, 0xea,
  0xe3, 0xf3, 0xfb, 0x1b, 0xd6, 0xb4, 0x5c, 0x2a, 0xe5, 0x0e, 0x4a, 0x03,
  0xf3, 0xed, 0xfd, 0x2b, 0xf7, 0x05, 0xfb, 0x22, 0xe3, 0xbd, 0x09, 0xcd,
  0x34, 0xfd, 0x44, 0x14, 0x07, 0x13, 0xea, 0x19, 0x28, 0xe7, 0xee, 0x09,
  0x36, 0xdf, 0x10, 0xc6, 0x1f, 0x2a, 0x4b, 0x22, 0xfc, 0xbb, 0x23, 0xf0,
  0xe0, 0xe2, 0xf6, 0xc7, 0xeb, 0xde, 0x30, 0xdc, 0x1d, 0x32, 0x1d, 0x2c,
  0x33, 0xc2, 0xe7, 0x06, 0x09, 0xde, 0x30, 0xe5, 0xdd, 0xf6, 0xda, 0xab,
  0xc8, 0x0d, 0x3b, 0x22, 0xf2, 0xe8, 0x16, 0xf4, 0x05, 0xe3, 0x1c, 0xf4,
  0x23, 0xb1, 0x03, 0xec, 0x2e, 0x4f, 0xf8, 0xe7, 0xe9, 0x81, 0x4a, 0x34,
  0xff, 0xcc, 0x16, 0xe2, 0xd0, 0x0e, 0x12, 0xa9, 0xdc, 0x34, 0x05, 0x07,
  0x25, 0xcc, 0x33, 0x07, 0x2c, 0x00, 0xe4, 0x1f, 0x23, 0xf2, 0xe7, 0x02,
  0xdb, 0x09, 0xf7, 0xd8, 0x27, 0x9f, 0x2a, 0x22, 0xeb, 0xe4, 0x48, 0xd2,
  0xda, 0x10, 0x46, 0x01, 0x01, 0x13, 0xe0, 0x3b, 0x11, 0xf0, 0xf2, 0x2e,
  0x57, 0xdd, 0x51, 0xe4, 0xd8, 0xc4, 0x1a, 0xc7, 0x11, 0xfd, 0x00, 0x2c,
  0x1c, 0x96, 0xf7, 0xe1, 0x74, 0xe4, 0x16, 0xd1, 0xdf, 0xb1, 0x31, 0xbd,
  0xf5, 0x5f, 0x30, 0xdc, 0x46, 0xc5, 0xd0, 0x3c, 0x05, 0xb5, 0x36, 0xcb,
  0x31, 0x0f, 0x46, 0xfc, 0x5d, 0x0a, 0x4b, 0x0c, 0xd4, 0xbe, 0xe9, 0xce,
  0xfe, 0xff, 0xee, 0xe7, 0x00, 0x19, 0xf5, 0x21, 0x50, 0x2d, 0x35, 0xea,
  0x1e, 0xbc, 0xe0, 0xce, 0x48, 0xee, 0x53, 0xdb, 0x38, 0x3f, 0x39, 0x02,
  0xce, 0x59, 0x39, 0x2d, 0x20, 0x92, 0xed, 0xbd, 0xd9, 0xc8, 0x5b, 0x13,
  0xe9, 0xb5, 0x5f, 0x15, 0xdc, 0x55, 0x43, 0xde, 0x38, 0x81, 0xca, 0x19,
  0xf5, 0xcc, 0x19, 0xd8, 0xfd, 0xc2, 0x37, 0xf3, 0xf0, 0x3d, 0xeb, 0xac,
  0x23, 0xb5, 0x12, 0x1e, 0x62, 0xcf, 0x39, 0xa5, 0x10, 0xe1, 0x28, 0xfb,
  0x25, 0x17, 0x3e, 0xcf, 0x28, 0x9d, 0x4b, 0xfa, 0x51, 0xa0, 0x51, 0xf2,
  0x06, 0xfd, 0x39, 0x39, 0x2a, 0x53, 0x1d, 0xe7, 0x02, 0xce, 0xfc, 0xe0,
  0xe2, 0x04, 0x3b, 0xdc, 0x9d, 0xdb, 0x07, 0xec, 0x1d, 0x4b, 0x09, 0x1e,
  0x01, 0xbd, 0xe0, 0xaa, 0xc3, 0xcc, 0x04, 0x42, 0x3f, 0xe2, 0xca, 0x08,
  0x16, 0xd2, 0x0d, 0x16, 0xe4, 0x03, 0xc4, 0xce, 0xe3, 0xdf, 0xe1, 0x69,
  0x0a, 0x27, 0xe2, 0xff, 0x15, 0xfc, 0x19, 0x0f, 0xc4, 0x1a, 0xdf, 0xae,
  0xed, 0xc1, 0xb9, 0x6f, 0x51, 0x06, 0xb3, 0xce, 0x47, 0xc8, 0x10, 0x1c,
  0xfb, 0x57, 0xc8, 0xc9, 0x01, 0xdd, 0x03, 0x0e, 0x06, 0x1b, 0xe8, 0xfb,
  0x0b, 0x2c, 0x1c, 0x01, 0x01, 0x1f, 0xff, 0xb0, 0xb0, 0xd3, 0x29, 0x0a,
  0x14, 0x25, 0xfe, 0x2f, 0x0b, 0xeb, 0xca, 0xf3, 0xe3, 0x23, 0x15, 0xb4,
  0xb5, 0xd0, 0x03, 0x6b, 0x5a, 0x2f, 0xc8, 0x2e, 0xf2, 0xd6, 0x0e, 0xfb,
  0x04, 0xc7, 0xed, 0xb3, 0x0a, 0xcc, 0xf2, 0x15, 0xee, 0x3c, 0xea, 0x3c,
  0x50, 0x08, 0x0d, 0xe8, 0xf1, 0x4a, 0xfd, 0xfa, 0x0c, 0xbb, 0x12, 0x61,
  0x4b, 0x2c, 0xac, 0xf4, 0x4e, 0xd5, 0xf4, 0x14, 0xd4, 0x44, 0xb0, 0xea,
  0x0c, 0x02, 0x20, 0x18, 0x54, 0x07, 0xff, 0xd9, 0x16, 0x28, 0x17, 0xb1,
  0xf8, 0xe9, 0xb3, 0xeb, 0xba, 0xc7, 0xbc, 0x7f, 0x22, 0x06, 0xc8, 0x2e,
  0x12, 0xec, 0xf3, 0xe1, 0x40, 0x4a, 0x0d, 0xed, 0x2e, 0xfa, 0xff, 0xff,
  0x04, 0x00, 0x00, 0x00, 0x80, 0x00, 0x00, 0x00, 0xf0, 0x02, 0x00, 0x00,
  0xbf, 0x09, 0x00, 0x00, 0xf6, 0x08, 0x00, 0x00, 0x6d, 0xfd, 0xff, 0xff,
  0xaa, 0x0b, 0x00, 0x00, 0xed, 0x05, 0x00, 0x00, 0x8f, 0x06, 0x00, 0x00,
  0x6c, 0x09, 0x00, 0x00, 0x39, 0x02, 0x00, 0x00, 0x82, 0x01, 0x00, 0x00,
  0xfc, 0x07, 0x00, 0x00, 0x0f, 0xff, 0xff, 0xff, 0xc2, 0x07, 0x00, 0x00,
  0xa1, 0xfb, 0xff, 0xff, 0x3f, 0x07, 0x00, 0x00, 0x19, 0xfb, 0xff, 0xff,
  0x37, 0x0c, 0x00, 0x00, 0xe3, 0x0e, 0x00, 0x00, 0xe9, 0xf8, 0xff, 0xff,
  0xf0, 0x0c, 0x00, 0x00, 0xc8, 0x0a, 0x00, 0x00, 0xa0, 0x07, 0x00, 0x00,
  0xc0, 0x07, 0x00, 0x00, 0x66, 0xe9, 0xff, 0xff, 0x6b, 0x0e, 0x00, 0x00,
  0x69, 0x03, 0x00, 0x00, 0x1f, 0x15, 0x00, 0x00, 0xa0, 0xe8, 0xff, 0xff,
  0x63, 0x07, 0x00, 0x00, 0x99, 0x05, 0x00, 0x00, 0x44, 0x06, 0x00, 0x00,
  0x92, 0xfe, 0xff, 0xff, 0xba, 0xfa, 0xff, 0xff, 0x04, 0x00, 0x00, 0x00,
  0x00, 0x04, 0x00, 0x00, 0xec, 0xe9, 0xd7, 0x7f, 0x49, 0xfe, 0x69, 0xd5,
  0xe0, 0x7a, 0xf4, 0x1b, 0x00, 0xcc, 0xec, 0xa8, 0x23, 0xa2, 0x2f, 0xec,
  0x89, 0xd7, 0x30, 0x52, 0xd9, 0x0c, 0x12, 0x98, 0xa5, 0x44, 0xca, 0x00,
  0x14, 0x02, 0x17, 0xc8, 0x94, 0x96, 0x94, 0xe6, 0x2d, 0xce, 0x81, 0xf9,
  0x7b, 0x12, 0x41, 0x1d, 0x14, 0x1e, 0xa6, 0x2c, 0x51, 0x06, 0x3c, 0x37,
  0xab, 0xaf, 0x22, 0x18, 0x03, 0x52, 0xf0, 0x45, 0xe8, 0x86, 0xc0, 0x8f,
  0x12, 0xd0, 0xd3, 0xbe, 0x22, 0x3d, 0xad, 0x3e, 0xfb, 0xbf, 0xce, 0x36,
  0xbb, 0xb7, 0xe6, 0x06, 0xa1, 0x8f, 0xfc, 0xae, 0xc7, 0x81, 0x4d, 0xbe,
  0x43, 0xf3, 0xc3, 0xf1, 0x55, 0x06, 0xc6, 0x79, 0xef, 0x7f, 0x5f, 0x05,
  0x79, 0x59, 0xc1, 0xd0, 0xce, 0x8c, 0xde, 0x2f, 0x2e, 0x65, 0xbb, 0x1f,
  0xe6, 0x93, 0xab, 0x55, 0x16, 0x06, 0xd5, 0x03, 0xe7, 0x23, 0xe7, 0xd4,
  0xe9, 0x22, 0xdc, 0x46, 0x8d, 0xc3, 0x29, 0x81, 0x01, 0xd9, 0xbc, 0xc6,
  0x62, 0x59, 0x5c, 0x5a, 0xc7, 0xad, 0xda, 0x3a, 0x1d, 0x0d, 0x1f, 0xa6,
  0xeb, 0x52, 0xab, 0x03, 0x3e, 0x5a, 0x37, 0x46, 0xdf, 0x5a, 0x98, 0x99,
  0x7f, 0xb8, 0x61, 0x0f, 0x8b, 0xd3, 0x75, 0xc9, 0xd2, 0xe9, 0xc6, 0x4e,
  0x32, 0xef, 0xea, 0xac, 0xb8, 0x52, 0x1e, 0xee, 0x28, 0xeb, 0x07, 0x4d,
  0x4e, 0xe0, 0xed, 0x31, 0xa3, 0x25, 0x00, 0xdf, 0x48, 0xca, 0xe5, 0x77,
  0xcd, 0x8b, 0x3a, 0xc0, 0xf4, 0x9e, 0x9d, 0x0e, 0xe9, 0x91, 0x6e, 0x29,
  0x35, 0x5d, 0x29, 0xd2, 0x81, 0x09, 0xda, 0x55, 0x9f, 0x28, 0xd8, 0x3c,
  0xdd, 0xee, 0x57, 0xb6, 0xe3, 0x86, 0xe4, 0xda, 0x1f, 0x1d, 0xef, 0x60,
  0x01, 0x45, 0xbe, 0x33, 0x3d, 0xe2, 0x59, 0x60, 0x16, 0x5f, 0x86, 0xc1,
  0xe9, 0x7f, 0xd0, 0x9e, 0xfa, 0x19, 0x64, 0x9f, 0x3c, 0xaf, 0xf0, 0xc7,
  0xc2, 0xc8, 0xef, 0x55, 0x1f, 0x0f, 0xc7, 0xf7, 0xcd, 0xf3, 0x6e, 0x23,
  0x53, 0x3d, 0xa1, 0x7f, 0x04, 0x67, 0xdd, 0x2f, 0x2a, 0x25, 0x42, 0xb7,
  0xd1, 0x1b, 0x42, 0x10, 0xa9, 0xcc, 0xd0, 0xae, 0x1c, 0x2f, 0x3b, 0xfe,
  0xab, 0xc1, 0xb7, 0x1d, 0x08, 0x9f, 0x8d, 0x15, 0x29, 0xc8, 0x16, 0xa3,
  0xd9, 0x4d, 0x5d, 0x81, 0xf9, 0xff, 0x1f, 0x26, 0x12, 0x60, 0x03, 0xb2,
  0x88, 0x09, 0x10, 0xd0, 0x0e, 0x81, 0xaf, 0x5b, 0xf3, 0x90, 0x57, 0xe5,
  0xab, 0xdb, 0x0e, 0x82, 0xd8, 0x88, 0xf2, 0xcd, 0xd8, 0xf8, 0x9c, 0x39,
  0x06, 0xbc, 0x84, 0xa0, 0x36, 0xcd, 0xe8, 0xea, 0x76, 0xe3, 0xe2, 0xa3,
  0xdf, 0xb3, 0xac, 0x20, 0x3e, 0x22, 0xcc, 0x0a, 0x71, 0x34, 0x7f, 0x07,
  0xd9, 0x90, 0x91, 0x0a, 0x41, 0x40, 0x1c, 0x32, 0xa9, 0xfd, 0x22, 0x22,
  0xbd, 0xea, 0xcd, 0x10, 0xad, 0xeb, 0x94, 0xd1, 0x41, 0xfe, 0x69, 0xdf,
  0x00, 0xd7, 0x51, 0x02, 0xe6, 0xfe, 0xa5, 0x1b, 0x65, 0x79, 0x2e, 0x4d,
  0x85, 0x91, 0x37, 0xa2, 0xf6, 0x63, 0xd4, 0xc2, 0x5b, 0x81, 0x0f, 0x4f,
  0x8e, 0xcd, 0x2d, 0xce, 0x8d, 0x01, 0xd3, 0xb9, 0xfc, 0x8f, 0x5c, 0x6d,
  0x9c, 0xd3, 0xc8, 0xf4, 0x32, 0x38, 0xa5, 0x81, 0x5f, 0xb0, 0xf2, 0xd4,
  0x96, 0x20, 0x16, 0x29, 0xaa, 0x24, 0x12, 0xf1, 0xff, 0x1d, 0x39, 0x69,
  0x6a, 0x09, 0xe1, 0x6a, 0x24, 0x16, 0xf9, 0x20, 0x81, 0x2e, 0x0d, 0x01,
  0x30, 0xb1, 0x24, 0x1b, 0x02, 0x1e, 0x6a, 0x49, 0xf4, 0xd6, 0x25, 0x00,
  0xea, 0xaf, 0xce, 0x6e, 0xe0, 0xd8, 0xd9, 0x1d, 0x1b, 0x60, 0x72, 0x63,
  0xf4, 0x6f, 0x34, 0x30, 0xb9, 0x27, 0xbd, 0xf0, 0xe5, 0x70, 0xbd, 0x2a,
  0x0c, 0x4e, 0x32, 0xe4, 0x81, 0x1a, 0xa8, 0xfe, 0xa3, 0xde, 0xb3, 0x72,
  0xa5, 0x55, 0x17, 0x7f, 0x72, 0x4f, 0x08, 0x1f, 0xc8, 0x3c, 0x04, 0x58,
  0xa4, 0xaa, 0x38, 0xc3, 0x19, 0xb8, 0xc0, 0x35, 0x28, 0xed, 0x72, 0x39,
  0xcd, 0x25, 0x5d, 0xb5, 0x1e, 0x98, 0xfa, 0x30, 0x25, 0x6d, 0xaa, 0x8b,
  0x64, 0x84, 0x0e, 0xbd, 0x8b, 0x9c, 0x1d, 0xb8, 0xdf, 0x53, 0x1d, 0xb8,
  0x42, 0x24, 0x16, 0x81, 0x11, 0xd1, 0x63, 0xe4, 0xbc, 0xb8, 0x1e, 0x01,
  0x2a, 0x13, 0x28, 0x7f, 0xe4, 0x91, 0x10, 0x81, 0x1a, 0xec, 0x71, 0xfe,
  0xc8, 0x5a, 0x17, 0x9c, 0xb1, 0x12, 0xa7, 0xa3, 0xa4, 0xb8, 0xff, 0xa0,
  0xc5, 0x05, 0xc9, 0xb2, 0xc7, 0x37, 0x11, 0x3c, 0xba, 0xbf, 0x70, 0x13,
  0x68, 0x10, 0x4c, 0xe6, 0xed, 0x4b, 0xb7, 0x09, 0x9f, 0x81, 0x92, 0xff,
  0x2b, 0xe6, 0x2d, 0x31, 0x34, 0x03, 0x45, 0x32, 0x30, 0x1d, 0x88, 0x30,
  0xbc, 0x13, 0xc6, 0x55, 0x63, 0x61, 0x24, 0xd6, 0x45, 0x16, 0xfc, 0xd1,
  0x05, 0x9d, 0x13, 0x81, 0x6a, 0xdd, 0x16, 0x68, 0x70, 0xb2, 0x68, 0xd7,
  0x87, 0x0a, 0x01, 0xb4, 0xfd, 0x6d, 0xa7, 0xa0, 0x54, 0x47, 0xf9, 0xeb,
  0x1f, 0xf4, 0x2f, 0xb1, 0x56, 0xfc, 0x09, 0x1a, 0xb9, 0x3d, 0x93, 0xf9,
  0xc3, 0x0d, 0xe0, 0x9e, 0x5a, 0x29, 0x62, 0xca, 0x2a, 0xec, 0x29, 0x27,
  0x5d, 0xde, 0xa5, 0x7f, 0xf7, 0xe3, 0x36, 0x53, 0x67, 0x46, 0x44, 0x4c,
  0x1f, 0x5a, 0xfd, 0xfa, 0x0f, 0xfc, 0x24, 0x3e, 0x8e, 0x71, 0x6d, 0xc4,
  0x42, 0x97, 0x12, 0xc5, 0x3f, 0xd3, 0x4a, 0xf0, 0x8d, 0x55, 0xd3, 0x0d,
  0x81, 0xf7, 0xc0, 0x26, 0x2d, 0xd5, 0x0c, 0x6c, 0x35, 0xe4, 0xf0, 0xcd,
  0xfa, 0xfa, 0xbb, 0x9f, 0x6a, 0x9d, 0x30, 0xf7, 0x5e, 0xfa, 0x1e, 0xb4,
  0x01, 0x14, 0xba, 0x26, 0x73, 0x10, 0x81, 0xbd, 0x88, 0x7e, 0xa0, 0xf7,
  0x62, 0x57, 0x22, 0x98, 0x82, 0x08, 0xb9, 0x46, 0x30, 0xe9, 0x86, 0x31,
  0x89, 0xc8, 0x81, 0x64, 0xc2, 0x01, 0xdf, 0xd6, 0xd8, 0xdc, 0x88, 0xbf,
  0x8e, 0xe5, 0x22, 0xed, 0x37, 0x8a, 0xa6, 0x13, 0xb7, 0xc5, 0x9a, 0x2a,
  0xb4, 0xd1, 0xa6, 0xc1, 0x69, 0xa0, 0xd5, 0x3a, 0x81, 0x97, 0x04, 0xfd,
  0xa5, 0x0b, 0x2e, 0xbd, 0x5c, 0x5c, 0x3f, 0xcd, 0xff, 0x16, 0x46, 0xfb,
  0x07, 0xee, 0xdf, 0xf3, 0x1f, 0xda, 0xeb, 0x7e, 0x70, 0x04, 0x04, 0xad,
  0xcf, 0xd3, 0x27, 0xe4, 0x2e, 0xee, 0xd1, 0x25, 0xf4, 0x2c, 0x5d, 0x0b,
  0x27, 0xa3, 0xcc, 0xfb, 0x1e, 0x25, 0xe2, 0x31, 0xeb, 0x29, 0x1f, 0x41,
  0x44, 0xde, 0x7f, 0xfb, 0xd1, 0x12, 0xf3, 0x47, 0xba, 0xa4, 0xc6, 0x0f,
  0xed, 0xce, 0xba, 0x7f, 0xfc, 0x75, 0x40, 0x25, 0x32, 0x90, 0xd9, 0xd7,
  0xca, 0xad, 0xd2, 0xe0, 0xfe, 0x7c, 0xbf, 0x21, 0xca, 0xa4, 0x7d, 0x65,
  0x60, 0x0b, 0x44, 0xb4, 0x08, 0xdf, 0x9a, 0xa1, 0x3b, 0x17, 0x82, 0xf4,
  0x42, 0xcc, 0x44, 0xad, 0x8d, 0xe3, 0x2e, 0x5d, 0x68, 0x75, 0xbf, 0x81,
  0x4c, 0x3d, 0xf4, 0xad, 0xf9, 0xbe, 0x46, 0xd3, 0xe7, 0x2b, 0x44, 0xf3,
  0xee, 0xbd, 0xc6, 0x03, 0xcc, 0xd4, 0xc6, 0x0e, 0xf6, 0xf1, 0x7f, 0xaa,
  0xfa, 0xae, 0xe8, 0x73, 0xbf, 0x66, 0xf1, 0xf7, 0x30, 0xf8, 0x37, 0xeb,
  0xf8, 0x6c, 0x62, 0xc0, 0xe0, 0xa6, 0x35, 0x3a, 0x7f, 0x15, 0xf4, 0xef,
  0x21, 0x65, 0x25, 0x23, 0xc0, 0x0c, 0x0c, 0xaa, 0x26, 0x6f, 0xc4, 0xae,
  0x98, 0xbd, 0xd0, 0x11, 0x56, 0xb9, 0x58, 0x5d, 0x20, 0x1e, 0x0d, 0x6b,
  0xf8, 0x17, 0xec, 0x2e, 0xf5, 0x15, 0x9b, 0x19, 0xf0, 0x98, 0xf1, 0x55,
  0x12, 0xe1, 0x7e, 0x43, 0x11, 0xe3, 0xa6, 0x7f, 0xe1, 0x52, 0xf2, 0xf5,
  0x8f, 0xca, 0x4f, 0xa7, 0x6d, 0xf3, 0x76, 0xae, 0xc6, 0xfe, 0xff, 0xff,
  0x04, 0x00, 0x00, 0x00, 0x80, 0x00, 0x00, 0x00, 0xcb, 0x01, 0x00, 0x00,
  0xc4, 0x01, 0x00, 0x00, 0x0e, 0xff, 0xff, 0xff, 0xf7, 0xff, 0xff, 0xff,
  0x2a, 0x01, 0x00, 0x00, 0x80, 0x01, 0x00, 0x00, 0x7b, 0xff, 0xff, 0xff,
  0xd9, 0x01, 0x00, 0x00, 0xac, 0x01, 0x00, 0x00, 0xc3, 0xfe, 0xff, 0xff,
  0x14, 0xff, 0xff, 0xff, 0x45, 0x02, 0x00, 0x00, 0x12, 0x01, 0x00, 0x00,
  0x72, 0xff, 0xff, 0xff, 0xf3, 0xfe, 0xff, 0xff, 0xf0, 0xfe, 0xff, 0xff,
  0x7c, 0x00, 0x00, 0x00, 0x18, 0x00, 0x00, 0x00, 0x83, 0xff, 0xff, 0xff,
  0x39, 0x00, 0x00, 0x00, 0x23, 0x01, 0x00, 0x00, 0x7c, 0x00, 0x00, 0x00,
  0x72, 0xfe, 0xff, 0xff, 0x01, 0x03, 0x00, 0x00, 0xd3, 0xfe, 0xff, 0xff,
  0x77, 0x01, 0x00, 0x00, 0xc4, 0x02, 0x00, 0x00, 0x97, 0x00, 0x00, 0x00,
  0x0a, 0x01, 0x00, 0x00, 0x05, 0x01, 0x00, 0x00, 0xe9, 0x00, 0x00, 0x00,
  0x80, 0x01, 0x00, 0x00, 0x52, 0xff, 0xff, 0xff, 0x04, 0x00, 0x00, 0x00,
  0x20, 0x00, 0x00, 0x00, 0xc2, 0x48, 0x1c, 0xcd, 0x44, 0xd0, 0x98, 0x5d,
  0x25, 0x4a, 0x42, 0x56, 0xb1, 0x09, 0xdc, 0xc2, 0xe5, 0x81, 0x1e, 0x0d,
  0x20, 0x2a, 0xc4, 0x7c, 0x1a, 0xb3, 0x31, 0x48, 0x73, 0x33, 0xca, 0x46,
  0x7e, 0xff, 0xff, 0xff, 0x04, 0x00, 0x00, 0x00, 0x04, 0x00, 0x00, 0x00,
  0xe3, 0xff, 0xff, 0xff, 0x8e, 0xff, 0xff, 0xff, 0x04, 0x00, 0x00, 0x00,
  0x0c, 0x00, 0x00, 0x00, 0xff, 0xff, 0xff, 0xff, 0x32, 0x00, 0x00, 0x00,
  0x20, 0x00, 0x00, 0x00, 0xa6, 0xff, 0xff, 0xff, 0x04, 0x00, 0x00, 0x00,
  0x0c, 0x00, 0x00, 0x00, 0xff, 0xff, 0xff, 0xff, 0x64, 0x00, 0x00, 0x00,
  0x20, 0x00, 0x00, 0x00, 0xbe, 0xff, 0xff, 0xff, 0x04, 0x00, 0x00, 0x00,
  0x0c, 0x00, 0x00, 0x00, 0xff, 0xff, 0xff, 0xff, 0x64, 0x00, 0x00, 0x00,
  0x10, 0x00, 0x00, 0x00, 0xd6, 0xff, 0xff, 0xff, 0x04, 0x00, 0x00, 0x00,
  0x04, 0x00, 0x00, 0x00, 0x01, 0x00, 0x00, 0x00, 0xe6, 0xff, 0xff, 0xff,
  0x04, 0x00, 0x00, 0x00, 0x0c, 0x00, 0x00, 0x00, 0xff, 0xff, 0xff, 0xff,
  0xc8, 0x00, 0x00, 0x00, 0x10, 0x00, 0x00, 0x00, 0x00, 0x00, 0x06, 0x00,
  0x08, 0x00, 0x04, 0x00, 0x06, 0x00, 0x00, 0x00, 0x04, 0x00, 0x00, 0x00,
  0x04, 0x00, 0x00, 0x00, 0xfd, 0xff, 0xff, 0xff, 0x08, 0xde, 0xff, 0xff,
  0x0c, 0xde, 0xff, 0xff, 0x0f, 0x00, 0x00, 0x00, 0x4d, 0x4c, 0x49, 0x52,
  0x20, 0x43, 0x6f, 0x6e, 0x76, 0x65, 0x72, 0x74, 0x65, 0x64, 0x2e, 0x00,
  0x01, 0x00, 0x00, 0x00, 0x14, 0x00, 0x00, 0x00, 0x00, 0x00, 0x0e, 0x00,
  0x18, 0x00, 0x14, 0x00, 0x10, 0x00, 0x0c, 0x00, 0x08, 0x00, 0x04, 0x00,
  0x0e, 0x00, 0x00, 0x00, 0x14, 0x00, 0x00, 0x00, 0x1c, 0x00, 0x00, 0x00,
  0xb8, 0x03, 0x00, 0x00, 0xbc, 0x03, 0x00, 0x00, 0xc0, 0x03, 0x00, 0x00,
  0x04, 0x00, 0x00, 0x00, 0x6d, 0x61, 0x69, 0x6e, 0x00, 0x00, 0x00, 0x00,
  0x10, 0x00, 0x00, 0x00, 0x70, 0x03, 0x00, 0x00, 0x10, 0x03, 0x00, 0x00,
  0xd8, 0x02, 0x00, 0x00, 0x9c, 0x02, 0x00, 0x00, 0x48, 0x02, 0x00, 0x00,
  0x10, 0x02, 0x00, 0x00, 0xe0, 0x01, 0x00, 0x00, 0x9c, 0x01, 0x00, 0x00,
  0x74, 0x01, 0x00, 0x00, 0x44, 0x01, 0x00, 0x00, 0x00, 0x01, 0x00, 0x00,
  0xd8, 0x00, 0x00, 0x00, 0xa4, 0x00, 0x00, 0x00, 0x60, 0x00, 0x00, 0x00,
  0x28, 0x00, 0x00, 0x00, 0x04, 0x00, 0x00, 0x00, 0x6a, 0xfd, 0xff, 0xff,
  0x0c, 0x00, 0x00, 0x00, 0x10, 0x00, 0x00, 0x00, 0x06, 0x00, 0x00, 0x00,
  0x01, 0x00, 0x00, 0x00, 0x1e, 0x00, 0x00, 0x00, 0x01, 0x00, 0x00, 0x00,
  0x1d, 0x00, 0x00, 0x00, 0x5a, 0xfd, 0xff, 0xff, 0x14, 0x00, 0x00, 0x00,
  0x00, 0x00, 0x00, 0x08, 0x10, 0x00, 0x00, 0x00, 0x14, 0x00, 0x00, 0x00,
  0x05, 0x00, 0x00, 0x00, 0xdc, 0xde, 0xff, 0xff, 0x01, 0x00, 0x00, 0x00,
  0x1d, 0x00, 0x00, 0x00, 0x03, 0x00, 0x00, 0x00, 0x1c, 0x00, 0x00, 0x00,
  0x08, 0x00, 0x00, 0x00, 0x07, 0x00, 0x00, 0x00, 0x4a, 0xfe, 0xff, 0xff,
  0x1c, 0x00, 0x00, 0x00, 0x00, 0x00, 0x00, 0x08, 0x1c, 0x00, 0x00, 0x00,
  0x20, 0x00, 0x00, 0x00, 0x05, 0x00, 0x00, 0x00, 0x00, 0x00, 0x06, 0x00,
  0x08, 0x00, 0x07, 0x00, 0x06, 0x00, 0x00, 0x00, 0x00, 0x00, 0x00, 0x01,
  0x01, 0x00, 0x00, 0x00, 0x1c, 0x00, 0x00, 0x00, 0x03, 0x00, 0x00, 0x00,
  0x1b, 0x00, 0x00, 0x00, 0x0a, 0x00, 0x00, 0x00, 0x09, 0x00, 0x00, 0x00,
  0xce, 0xfd, 0xff, 0xff, 0x14, 0x00, 0x00, 0x00, 0x00, 0x00, 0x00, 0x1b,
  0x10, 0x00, 0x00, 0x00, 0x14, 0x00, 0x00, 0x00, 0x04, 0x00, 0x00, 0x00,
  0x50, 0xdf, 0xff, 0xff, 0x01, 0x00, 0x00, 0x00, 0x1b, 0x00, 0x00, 0x00,
  0x02, 0x00, 0x00, 0x00, 0x1a, 0x00, 0x00, 0x00, 0x03, 0x00, 0x00, 0x00,
  0x2e, 0xfe, 0xff, 0xff, 0x0c, 0x00, 0x00, 0x00, 0x10, 0x00, 0x00, 0x00,
  0x02, 0x00, 0x00, 0x00, 0x01, 0x00, 0x00, 0x00, 0x1a, 0x00, 0x00, 0x00,
  0x02, 0x00, 0x00, 0x00, 0x19, 0x00, 0x00, 0x00, 0x06, 0x00, 0x00, 0x00,
  0x22, 0xfe, 0xff, 0xff, 0x14, 0x00, 0x00, 0x00, 0x00, 0x00, 0x00, 0x05,
  0x24, 0x00, 0x00, 0x00, 0x28, 0x00, 0x00, 0x00, 0x03, 0x00, 0x00, 0x00,
  0xce, 0xfe, 0xff, 0xff, 0x01, 0x00, 0x00, 0x00, 0x02, 0x00, 0x00, 0x00,
  0x01, 0x00, 0x00, 0x00, 0x02, 0x00, 0x00, 0x00, 0x00, 0x00, 0x00, 0x01,
  0x01, 0x00, 0x00, 0x00, 0x19, 0x00, 0x00, 0x00, 0x01, 0x00, 0x00, 0x00,
  0x18, 0x00, 0x00, 0x00, 0x06, 0xfe, 0xff, 0xff, 0x10, 0x00, 0x00, 0x00,
  0x00, 0x00, 0x00, 0x34, 0x0c, 0x00, 0x00, 0x00, 0x10, 0x00, 0x00, 0x00,
  0xe0, 0xdf, 0xff, 0xff, 0x01, 0x00, 0x00, 0x00, 0x18, 0x00, 0x00, 0x00,
  0x02, 0x00, 0x00, 0x00, 0x17, 0x00, 0x00, 0x00, 0x03, 0x00, 0x00, 0x00,
  0xbe, 0xfe, 0xff, 0xff, 0x0c, 0x00, 0x00, 0x00, 0x10, 0x00, 0x00, 0x00,
  0x02, 0x00, 0x00, 0x00, 0x01, 0x00, 0x00, 0x00, 0x17, 0x00, 0x00, 0x00,
  0x02, 0x00, 0x00, 0x00, 0x16, 0x00, 0x00, 0x00, 0x05, 0x00, 0x00, 0x00,
  0xb2, 0xfe, 0xff, 0xff, 0x14, 0x00, 0x00, 0x00, 0x00, 0x00, 0x00, 0x01,
  0x1c, 0x00, 0x00, 0x00, 0x20, 0x00, 0x00, 0x00, 0x01, 0x00, 0x00, 0x00,
  0xa4, 0xfe, 0xff, 0xff, 0x00, 0x00, 0x00, 0x01, 0x01, 0x00, 0x00, 0x00,
  0x01, 0x00, 0x00, 0x00, 0x01, 0x00, 0x00, 0x00, 0x16, 0x00, 0x00, 0x00,
  0x03, 0x00, 0x00, 0x00, 0x15, 0x00, 0x00, 0x00, 0x0c, 0x00, 0x00, 0x00,
  0x0b, 0x00, 0x00, 0x00, 0x96, 0xfe, 0xff, 0xff, 0x10, 0x00, 0x00, 0x00,
  0x00, 0x00, 0x00, 0x34, 0x0c, 0x00, 0x00, 0x00, 0x10, 0x00, 0x00, 0x00,
  0x70, 0xe0, 0xff, 0xff, 0x01, 0x00, 0x00, 0x00, 0x15, 0x00, 0x00, 0x00,
  0x02, 0x00, 0x00, 0x00, 0x14, 0x00, 0x00, 0x00, 0x01, 0x00, 0x00, 0x00,
  0x4e, 0xff, 0xff, 0xff, 0x0c, 0x00, 0x00, 0x00, 0x10, 0x00, 0x00, 0x00,
  0x02, 0x00, 0x00, 0x00, 0x01, 0x00, 0x00, 0x00, 0x14, 0x00, 0x00, 0x00,
  0x02, 0x00, 0x00, 0x00, 0x13, 0x00, 0x00, 0x00, 0x04, 0x00, 0x00, 0x00,
  0x00, 0x00, 0x0e, 0x00, 0x1a, 0x00, 0x14, 0x00, 0x10, 0x00, 0x0c, 0x00,
  0x0b, 0x00, 0x04, 0x00, 0x0e, 0x00, 0x00, 0x00, 0x24, 0x00, 0x00, 0x00,
  0x00, 0x00, 0x00, 0x05, 0x34, 0x00, 0x00, 0x00, 0x38, 0x00, 0x00, 0x00,
  0x03, 0x00, 0x00, 0x00, 0x00, 0x00, 0x0e, 0x00, 0x18, 0x00, 0x17, 0x00,
  0x10, 0x00, 0x0c, 0x00, 0x08, 0x00, 0x04, 0x00, 0x0e, 0x00, 0x00, 0x00,
  0x01, 0x00, 0x00, 0x00, 0x02, 0x00, 0x00, 0x00, 0x01, 0x00, 0x00, 0x00,
  0x02, 0x00, 0x00, 0x00, 0x00, 0x00, 0x00, 0x01, 0x01, 0x00, 0x00, 0x00,
  0x13, 0x00, 0x00, 0x00, 0x01, 0x00, 0x00, 0x00, 0x12, 0x00, 0x00, 0x00,
  0x46, 0xff, 0xff, 0xff, 0x10, 0x00, 0x00, 0x00, 0x00, 0x00, 0x00, 0x34,
  0x0c, 0x00, 0x00, 0x00, 0x10, 0x00, 0x00, 0x00, 0x20, 0xe1, 0xff, 0xff,
  0x01, 0x00, 0x00, 0x00, 0x12, 0x00, 0x00, 0x00, 0x02, 0x00, 0x00, 0x00,
  0x11, 0x00, 0x00, 0x00, 0x03, 0x00, 0x00, 0x00, 0x00, 0x00, 0x0a, 0x00,
  0x10, 0x00, 0x0c, 0x00, 0x08, 0x00, 0x04, 0x00, 0x0a, 0x00, 0x00, 0x00,
  0x0c, 0x00, 0x00, 0x00, 0x10, 0x00, 0x00, 0x00, 0x02, 0x00, 0x00, 0x00,
  0x01, 0x00, 0x00, 0x00, 0x11, 0x00, 0x00, 0x00, 0x02, 0x00, 0x00, 0x00,
  0x10, 0x00, 0x00, 0x00, 0x02, 0x00, 0x00, 0x00, 0x00, 0x00, 0x0e, 0x00,
  0x18, 0x00, 0x14, 0x00, 0x10, 0x00, 0x0c, 0x00, 0x0b, 0x00, 0x04, 0x00,
  0x0e, 0x00, 0x00, 0x00, 0x20, 0x00, 0x00, 0x00, 0x00, 0x00, 0x00, 0x01,
  0x28, 0x00, 0x00, 0x00, 0x2c, 0x00, 0x00, 0x00, 0x01, 0x00, 0x00, 0x00,
  0x0c, 0x00, 0x10, 0x00, 0x00, 0x00, 0x0c, 0x00, 0x08, 0x00, 0x07, 0x00,
  0x0c, 0x00, 0x00, 0x00, 0x00, 0x00, 0x00, 0x01, 0x01, 0x00, 0x00, 0x00,
  0x01, 0x00, 0x00, 0x00, 0x01, 0x00, 0x00, 0x00, 0x10, 0x00, 0x00, 0x00,
  0x03, 0x00, 0x00, 0x00, 0x0f, 0x00, 0x00, 0x00, 0x0e, 0x00, 0x00, 0x00,
  0x0d, 0x00, 0x00, 0x00, 0x00, 0x00, 0x0e, 0x00, 0x14, 0x00, 0x00, 0x00,
  0x10, 0x00, 0x0c, 0x00, 0x0b, 0x00, 0x04, 0x00, 0x0e, 0x00, 0x00, 0x00,
  0x10, 0x00, 0x00, 0x00, 0x00, 0x00, 0x00, 0x34, 0x0c, 0x00, 0x00, 0x00,
  0x10, 0x00, 0x00, 0x00, 0xe8, 0xe1, 0xff, 0xff, 0x01, 0x00, 0x00, 0x00,
  0x0f, 0x00, 0x00, 0x00, 0x02, 0x00, 0x00, 0x00, 0x00, 0x00, 0x00, 0x00,
  0x01, 0x00, 0x00, 0x00, 0x01, 0x00, 0x00, 0x00, 0x1e, 0x00, 0x00, 0x00,
  0x01, 0x00, 0x00, 0x00, 0x00, 0x00, 0x00, 0x00, 0x1f, 0x00, 0x00, 0x00,
  0x24, 0x1e, 0x00, 0x00, 0xcc, 0x1d, 0x00, 0x00, 0x58, 0x1d, 0x00, 0x00,
  0x1c, 0x1d, 0x00, 0x00, 0xbc, 0x1c, 0x00, 0x00, 0x60, 0x1c, 0x00, 0x00,
  0xfc, 0x1b, 0x00, 0x00, 0x90, 0x1b, 0x00, 0x00, 0x1c, 0x1b, 0x00, 0x00,
  0x20, 0x19, 0x00, 0x00, 0x3c, 0x17, 0x00, 0x00, 0x38, 0x14, 0x00, 0x00,
  0xb4, 0x11, 0x00, 0x00, 0x80, 0x0f, 0x00, 0x00, 0xc4, 0x0d, 0x00, 0x00,
  0x20, 0x0d, 0x00, 0x00, 0x7c, 0x0b, 0x00, 0x00, 0xfc, 0x09, 0x00, 0x00,
  0x54, 0x09, 0x00, 0x00, 0xb8, 0x08, 0x00, 0x00, 0x20, 0x08, 0x00, 0x00,
  0x80, 0x07, 0x00, 0x00, 0xcc, 0x05, 0x00, 0x00, 0x44, 0x04, 0x00, 0x00,
  0x9c, 0x03, 0x00, 0x00, 0x00, 0x03, 0x00, 0x00, 0x60, 0x02, 0x00, 0x00,
  0xd0, 0x01, 0x00, 0x00, 0x1c, 0x01, 0x00, 0x00, 0x80, 0x00, 0x00, 0x00,
  0x04, 0x00, 0x00, 0x00, 0x6e, 0xe2, 0xff, 0xff, 0x00, 0x00, 0x00, 0x01,
  0x18, 0x00, 0x00, 0x00, 0x20, 0x00, 0x00, 0x00, 0x3c, 0x00, 0x00, 0x00,
  0x1f, 0x00, 0x00, 0x00, 0x00, 0x00, 0x00, 0x09, 0x50, 0x00, 0x00, 0x00,
  0x02, 0x00, 0x00, 0x00, 0xff, 0xff, 0xff, 0xff, 0x01, 0x00, 0x00, 0x00,
  0x54, 0xe2, 0xff, 0xff, 0x08, 0x00, 0x00, 0x00, 0x10, 0x00, 0x00, 0x00,
  0x01, 0x00, 0x00, 0x00, 0x80, 0xff, 0xff, 0xff, 0xff, 0xff, 0xff, 0xff,
  0x01, 0x00, 0x00, 0x00, 0x00, 0x00, 0x80, 0x3b, 0x1b, 0x00, 0x00, 0x00,
  0x53, 0x74, 0x61, 0x74, 0x65, 0x66, 0x75, 0x6c, 0x50, 0x61, 0x72, 0x74,
  0x69, 0x74, 0x69, 0x6f, 0x6e, 0x65, 0x64, 0x43, 0x61, 0x6c, 0x6c, 0x5f,
  0x31, 0x3a, 0x30, 0x00, 0x02, 0x00, 0x00, 0x00, 0x01, 0x00, 0x00, 0x00,
  0x01, 0x00, 0x00, 0x00, 0xe6, 0xe2, 0xff, 0xff, 0x00, 0x00, 0x00, 0x01,
  0x18, 0x00, 0x00, 0x00, 0x20, 0x00, 0x00, 0x00, 0x3c, 0x00, 0x00, 0x00,
  0x1e, 0x00, 0x00, 0x00, 0x00, 0x00, 0x00, 0x09, 0x70, 0x00, 0x00, 0x00,
  0x02, 0x00, 0x00, 0x00, 0xff, 0xff, 0xff, 0xff, 0x01, 0x00, 0x00, 0x00,
  0xcc, 0xe2, 0xff, 0xff, 0x08, 0x00, 0x00, 0x00, 0x10, 0x00, 0x00, 0x00,
  0x01, 0x00, 0x00, 0x00, 0x8a, 0xff, 0xff, 0xff, 0xff, 0xff, 0xff, 0xff,
  0x01, 0x00, 0x00, 0x00, 0x46, 0xed, 0x24, 0x3e, 0x38, 0x00, 0x00, 0x00,
  0x66, 0x75, 0x6e, 0x63, 0x74, 0x69, 0x6f, 0x6e, 0x61, 0x6c, 0x5f, 0x31,
  0x2f, 0x64, 0x65, 0x6e, 0x73, 0x65, 0x5f, 0x31, 0x5f, 0x32, 0x2f, 0x4d,
  0x61, 0x74, 0x4d, 0x75, 0x6c, 0x3b, 0x66, 0x75, 0x6e, 0x63, 0x74, 0x69,
  0x6f, 0x6e, 0x61, 0x6c, 0x5f, 0x31, 0x2f, 0x64, 0x65, 0x6e, 0x73, 0x65,
  0x5f, 0x31, 0x5f, 0x32, 0x2f, 0x41, 0x64, 0x64, 0x00, 0x00, 0x00, 0x00,
  0x02, 0x00, 0x00, 0x00, 0x01, 0x00, 0x00, 0x00, 0x01, 0x00, 0x00, 0x00,
  0x7e, 0xe3, 0xff, 0xff, 0x00, 0x00, 0x00, 0x01, 0x18, 0x00, 0x00, 0x00,
  0x20, 0x00, 0x00, 0x00, 0x3c, 0x00, 0x00, 0x00, 0x1d, 0x00, 0x00, 0x00,
  0x00, 0x00, 0x00, 0x09, 0x88, 0x00, 0x00, 0x00, 0x02, 0x00, 0x00, 0x00,
  0xff, 0xff, 0xff, 0xff, 0x20, 0x00, 0x00, 0x00, 0x64, 0xe3, 0xff, 0xff,
  0x08, 0x00, 0x00, 0x00, 0x10, 0x00, 0x00, 0x00, 0x01, 0x00, 0x00, 0x00,
  0x80, 0xff, 0xff, 0xff, 0xff, 0xff, 0xff, 0xff, 0x01, 0x00, 0x00, 0x00,
  0xa0, 0x92, 0x90, 0x3d, 0x52, 0x00, 0x00, 0x00, 0x66, 0x75, 0x6e, 0x63,
  0x74, 0x69, 0x6f, 0x6e, 0x61, 0x6c, 0x5f, 0x31, 0x2f, 0x64, 0x65, 0x6e,
  0x73, 0x65, 0x5f, 0x31, 0x2f, 0x4d, 0x61, 0x74, 0x4d, 0x75, 0x6c, 0x3b,
  0x66, 0x75, 0x6e, 0x63, 0x74, 0x69, 0x6f, 0x6e, 0x61, 0x6c, 0x5f, 0x31,
  0x2f, 0x64, 0x65, 0x6e, 0x73, 0x65, 0x5f, 0x31, 0x2f, 0x52, 0x65, 0x6c,
  0x75, 0x3b, 0x66, 0x75, 0x6e, 0x63, 0x74, 0x69, 0x6f, 0x6e, 0x61, 0x6c,
  0x5f, 0x31, 0x2f, 0x64, 0x65, 0x6e, 0x73, 0x65, 0x5f, 0x31, 0x2f, 0x42,
  0x69, 0x61, 0x73, 0x41, 0x64, 0x64, 0x00, 0x00, 0x02, 0x00, 0x00, 0x00,
  0x01, 0x00, 0x00, 0x00, 0x20, 0x00, 0x00, 0x00, 0x2e, 0xe4, 0xff, 0xff,
  0x00, 0x00, 0x00, 0x01, 0x18, 0x00, 0x00, 0x00, 0x20, 0x00, 0x00, 0x00,
  0x3c, 0x00, 0x00, 0x00, 0x1c, 0x00, 0x00, 0x00, 0x00, 0x00, 0x00, 0x09,
  0x64, 0x00, 0x00, 0x00, 0x02, 0x00, 0x00, 0x00, 0xff, 0xff, 0xff, 0xff,
  0x20, 0x00, 0x00, 0x00, 0x14, 0xe4, 0xff, 0xff, 0x08, 0x00, 0x00, 0x00,
  0x10, 0x00, 0x00, 0x00, 0x01, 0x00, 0x00, 0x00, 0x80, 0xff, 0xff, 0xff,
  0xff, 0xff, 0xff, 0xff, 0x01, 0x00, 0x00, 0x00, 0xb8, 0xdb, 0x48, 0x3d,
  0x2c, 0x00, 0x00, 0x00, 0x66, 0x75, 0x6e, 0x63, 0x74, 0x69, 0x6f, 0x6e,
  0x61, 0x6c, 0x5f, 0x31, 0x2f, 0x67, 0x6c, 0x6f, 0x62, 0x61, 0x6c, 0x5f,
  0x61, 0x76, 0x65, 0x72, 0x61, 0x67, 0x65, 0x5f, 0x70, 0x6f, 0x6f, 0x6c,
  0x69, 0x6e, 0x67, 0x31, 0x64, 0x5f, 0x31, 0x2f, 0x4d, 0x65, 0x61, 0x6e,
  0x00, 0x00, 0x00, 0x00, 0x02, 0x00, 0x00, 0x00, 0x01, 0x00, 0x00, 0x00,
  0x20, 0x00, 0x00, 0x00, 0xba, 0xe4, 0xff, 0xff, 0x00, 0x00, 0x00, 0x01,
  0x18, 0x00, 0x00, 0x00, 0x24, 0x00, 0x00, 0x00, 0x44, 0x00, 0x00, 0x00,
  0x1b, 0x00, 0x00, 0x00, 0x00, 0x00, 0x00, 0x09, 0x70, 0x00, 0x00, 0x00,
  0x03, 0x00, 0x00, 0x00, 0xff, 0xff, 0xff, 0xff, 0x32, 0x00, 0x00, 0x00,
  0x20, 0x00, 0x00, 0x00, 0xa4, 0xe4, 0xff, 0xff, 0x08, 0x00, 0x00, 0x00,
  0x14, 0x00, 0x00, 0x00, 0x01, 0x00, 0x00, 0x00, 0x80, 0xff, 0xff, 0xff,
  0xff, 0xff, 0xff, 0xff, 0x00, 0x00, 0x00, 0x00, 0x01, 0x00, 0x00, 0x00,
  0x1b, 0x19, 0xdb, 0x3d, 0x31, 0x00, 0x00, 0x00, 0x66, 0x75, 0x6e, 0x63,
  0x74, 0x69, 0x6f, 0x6e, 0x61, 0x6c, 0x5f, 0x31, 0x2f, 0x6d, 0x61, 0x78,
  0x5f, 0x70, 0x6f, 0x6f, 0x6c, 0x69, 0x6e, 0x67, 0x31, 0x64, 0x5f, 0x31,
  0x5f, 0x32, 0x2f, 0x4d, 0x61, 0x78, 0x50, 0x6f, 0x6f, 0x6c, 0x31, 0x64,
  0x2f, 0x53, 0x71, 0x75, 0x65, 0x65, 0x7a, 0x65, 0x31, 0x00, 0x00, 0x00,
  0x03, 0x00, 0x00, 0x00, 0x01, 0x00, 0x00, 0x00, 0x32, 0x00, 0x00, 0x00,
  0x20, 0x00, 0x00, 0x00, 0x56, 0xe5, 0xff, 0xff, 0x00, 0x00, 0x00, 0x01,
  0x18, 0x00, 0x00, 0x00, 0x28, 0x00, 0x00, 0x00, 0x44, 0x00, 0x00, 0x00,
  0x1a, 0x00, 0x00, 0x00, 0x00, 0x00, 0x00, 0x09, 0x68, 0x00, 0x00, 0x00,
  0x04, 0x00, 0x00, 0x00, 0xff, 0xff, 0xff, 0xff, 0x01, 0x00, 0x00, 0x00,
  0x32, 0x00, 0x00, 0x00, 0x20, 0x00, 0x00, 0x00, 0x44, 0xe5, 0xff, 0xff,
  0x08, 0x00, 0x00, 0x00, 0x10, 0x00, 0x00, 0x00, 0x01, 0x00, 0x00, 0x00,
  0x80, 0xff, 0xff, 0xff, 0xff, 0xff, 0xff, 0xff, 0x01, 0x00, 0x00, 0x00,
  0x1b, 0x19, 0xdb, 0x3d, 0x28, 0x00, 0x00, 0x00, 0x66, 0x75, 0x6e, 0x63,
  0x74, 0x69, 0x6f, 0x6e, 0x61, 0x6c, 0x5f, 0x31, 0x2f, 0x6d, 0x61, 0x78,
  0x5f, 0x70, 0x6f, 0x6f, 0x6c, 0x69, 0x6e, 0x67, 0x31, 0x64, 0x5f, 0x31,
  0x5f, 0x32, 0x2f, 0x4d, 0x61, 0x78, 0x50, 0x6f, 0x6f, 0x6c, 0x31, 0x64,
  0x00, 0x00, 0x00, 0x00, 0x04, 0x00, 0x00, 0x00, 0x01, 0x00, 0x00, 0x00,
  0x01, 0x00, 0x00, 0x00, 0x32, 0x00, 0x00, 0x00, 0x20, 0x00, 0x00, 0x00,
  0xee, 0xe5, 0xff, 0xff, 0x00, 0x00, 0x00, 0x01, 0x18, 0x00, 0x00, 0x00,
  0x28, 0x00, 0x00, 0x00, 0x48, 0x00, 0x00, 0x00, 0x19, 0x00, 0x00, 0x00,
  0x00, 0x00, 0x00, 0x09, 0x74, 0x00, 0x00, 0x00, 0x04, 0x00, 0x00, 0x00,
  0xff, 0xff, 0xff, 0xff, 0x01, 0x00, 0x00, 0x00, 0x64, 0x00, 0x00, 0x00,
  0x20, 0x00, 0x00, 0x00, 0xdc, 0xe5, 0xff, 0xff, 0x08, 0x00, 0x00, 0x00,
  0x14, 0x00, 0x00, 0x00, 0x01, 0x00, 0x00, 0x00, 0x80, 0xff, 0xff, 0xff,
  0xff, 0xff, 0xff, 0xff, 0x00, 0x00, 0x00, 0x00, 0x01, 0x00, 0x00, 0x00,
  0x1b, 0x19, 0xdb, 0x3d, 0x33, 0x00, 0x00, 0x00, 0x66, 0x75, 0x6e, 0x63,
  0x74, 0x69, 0x6f, 0x6e, 0x61, 0x6c, 0x5f, 0x31, 0x2f, 0x6d, 0x61, 0x78,
  0x5f, 0x70, 0x6f, 0x6f, 0x6c, 0x69, 0x6e, 0x67, 0x31, 0x64, 0x5f, 0x31,
  0x5f, 0x32, 0x2f, 0x4d, 0x61, 0x78, 0x50, 0x6f, 0x6f, 0x6c, 0x31, 0x64,
  0x2f, 0x45, 0x78, 0x70, 0x61, 0x6e, 0x64, 0x44, 0x69, 0x6d, 0x73, 0x00,
  0x04, 0x00, 0x00, 0x00, 0x01, 0x00, 0x00, 0x00, 0x01, 0x00, 0x00, 0x00,
  0x64, 0x00, 0x00, 0x00, 0x20, 0x00, 0x00, 0x00, 0x92, 0xe6, 0xff, 0xff,
  0x00, 0x00, 0x00, 0x01, 0x18, 0x00, 0x00, 0x00, 0x24, 0x00, 0x00, 0x00,
  0x40, 0x00, 0x00, 0x00, 0x18, 0x00, 0x00, 0x00, 0x00, 0x00, 0x00, 0x09,
  0x58, 0x01, 0x00, 0x00, 0x03, 0x00, 0x00, 0x00, 0xff, 0xff, 0xff, 0xff,
  0x64, 0x00, 0x00, 0x00, 0x20, 0x00, 0x00, 0x00, 0x7c, 0xe6, 0xff, 0xff,
  0x08, 0x00, 0x00, 0x00, 0x10, 0x00, 0x00, 0x00, 0x01, 0x00, 0x00, 0x00,
  0x80, 0xff, 0xff, 0xff, 0xff, 0xff, 0xff, 0xff, 0x01, 0x00, 0x00, 0x00,
  0x1b, 0x19, 0xdb, 0x3d, 0x1c, 0x01, 0x00, 0x00, 0x66, 0x75, 0x6e, 0x63,
  0x74, 0x69, 0x6f, 0x6e, 0x61, 0x6c, 0x5f, 0x31, 0x2f, 0x61, 0x63, 0x74,
  0x69, 0x76, 0x61, 0x74, 0x69, 0x6f, 0x6e, 0x5f, 0x31, 0x5f, 0x32, 0x2f,
  0x52, 0x65, 0x6c, 0x75, 0x3b, 0x66, 0x75, 0x6e, 0x63, 0x74, 0x69, 0x6f,
  0x6e, 0x61, 0x6c, 0x5f, 0x31, 0x2f, 0x62, 0x61, 0x74, 0x63, 0x68, 0x5f,
  0x6e, 0x6f, 0x72, 0x6d, 0x61, 0x6c, 0x69, 0x7a, 0x61, 0x74, 0x69, 0x6f,
  0x6e, 0x5f, 0x31, 0x5f, 0x32, 0x2f, 0x62, 0x61, 0x74, 0x63, 0x68, 0x6e,
  0x6f, 0x72, 0x6d, 0x2f, 0x61, 0x64, 0x64, 0x5f, 0x31, 0x3b, 0x66, 0x75,
  0x6e, 0x63, 0x74, 0x69, 0x6f, 0x6e, 0x61, 0x6c, 0x5f, 0x31, 0x2f, 0x63,
  0x6f, 0x6e, 0x76, 0x31, 0x64, 0x5f, 0x31, 0x5f, 0x32, 0x2f, 0x63, 0x6f,
  0x6e, 0x76, 0x6f, 0x6c, 0x75, 0x74, 0x69, 0x6f, 0x6e, 0x2f, 0x53, 0x71,
  0x75, 0x65, 0x65, 0x7a, 0x65, 0x3b, 0x66, 0x75, 0x6e, 0x63, 0x74, 0x69,
  0x6f, 0x6e, 0x61, 0x6c, 0x5f, 0x31, 0x2f, 0x62, 0x61, 0x74, 0x63, 0x68,
  0x5f, 0x6e, 0x6f, 0x72, 0x6d, 0x61, 0x6c, 0x69, 0x7a, 0x61, 0x74, 0x69,
  0x6f, 0x6e, 0x5f, 0x31, 0x5f, 0x32, 0x2f, 0x62, 0x61, 0x74, 0x63, 0x68,
  0x6e, 0x6f, 0x72, 0x6d, 0x2f, 0x6d, 0x75, 0x6c, 0x5f, 0x31, 0x3b, 0x66,
  0x75, 0x6e, 0x63, 0x74, 0x69, 0x6f, 0x6e, 0x61, 0x6c, 0x5f, 0x31, 0x2f,
  0x62, 0x61, 0x74, 0x63, 0x68, 0x5f, 0x6e, 0x6f, 0x72, 0x6d, 0x61, 0x6c,
  0x69, 0x7a, 0x61, 0x74, 0x69, 0x6f, 0x6e, 0x5f, 0x31, 0x5f, 0x32, 0x2f,
  0x62, 0x61, 0x74, 0x63, 0x68, 0x6e, 0x6f, 0x72, 0x6d, 0x2f, 0x6d, 0x75,
  0x6c, 0x3b, 0x66, 0x75, 0x6e, 0x63, 0x74, 0x69, 0x6f, 0x6e, 0x61, 0x6c,
  0x5f, 0x31, 0x2f, 0x62, 0x61, 0x74, 0x63, 0x68, 0x5f, 0x6e, 0x6f, 0x72,
  0x6d, 0x61, 0x6c, 0x69, 0x7a, 0x61, 0x74, 0x69, 0x6f, 0x6e, 0x5f, 0x31,
  0x5f, 0x32, 0x2f, 0x62, 0x61, 0x74, 0x63, 0x68, 0x6e, 0x6f, 0x72, 0x6d,
  0x2f, 0x73, 0x75, 0x62, 0x00, 0x00, 0x00, 0x00, 0x03, 0x00, 0x00, 0x00,
  0x01, 0x00, 0x00, 0x00, 0x64, 0x00, 0x00, 0x00, 0x20, 0x00, 0x00, 0x00,
  0x16, 0xe8, 0xff, 0xff, 0x00, 0x00, 0x00, 0x01, 0x18, 0x00, 0x00, 0x00,
  0x28, 0x00, 0x00, 0x00, 0x44, 0x00, 0x00, 0x00, 0x17, 0x00, 0x00, 0x00,
  0x00, 0x00, 0x00, 0x09, 0x80, 0x01, 0x00, 0x00, 0x04, 0x00, 0x00, 0x00,
  0xff, 0xff, 0xff, 0xff, 0x01, 0x00, 0x00, 0x00, 0x64, 0x00, 0x00, 0x00,
  0x20, 0x00, 0x00, 0x00, 0x04, 0xe8, 0xff, 0xff, 0x08, 0x00, 0x00, 0x00,
  0x10, 0x00, 0x00, 0x00, 0x01, 0x00, 0x00, 0x00, 0x80, 0xff, 0xff, 0xff,
  0xff, 0xff, 0xff, 0xff, 0x01, 0x00, 0x00, 0x00, 0x1b, 0x19, 0xdb, 0x3d,
  0x41, 0x01, 0x00, 0x00, 0x66, 0x75, 0x6e, 0x63, 0x74, 0x69, 0x6f, 0x6e,
  0x61, 0x6c, 0x5f, 0x31, 0x2f, 0x61, 0x63, 0x74, 0x69, 0x76, 0x61, 0x74,
  0x69, 0x6f, 0x6e, 0x5f, 0x31, 0x5f, 0x32, 0x2f, 0x52, 0x65, 0x6c, 0x75,
  0x3b, 0x66, 0x75, 0x6e, 0x63, 0x74, 0x69, 0x6f, 0x6e, 0x61, 0x6c, 0x5f,
  0x31, 0x2f, 0x62, 0x61, 0x74, 0x63, 0x68, 0x5f, 0x6e, 0x6f, 0x72, 0x6d,
  0x61, 0x6c, 0x69, 0x7a, 0x61, 0x74, 0x69, 0x6f, 0x6e, 0x5f, 0x31, 0x5f,
  0x32, 0x2f, 0x62, 0x61, 0x74, 0x63, 0x68, 0x6e, 0x6f, 0x72, 0x6d, 0x2f,
  0x61, 0x64, 0x64, 0x5f, 0x31, 0x3b, 0x66, 0x75, 0x6e, 0x63, 0x74, 0x69,
  0x6f, 0x6e, 0x61, 0x6c, 0x5f, 0x31, 0x2f, 0x63, 0x6f, 0x6e, 0x76, 0x31,
  0x64, 0x5f, 0x31, 0x5f, 0x32, 0x2f, 0x63, 0x6f, 0x6e, 0x76, 0x6f, 0x6c,
  0x75, 0x74, 0x69, 0x6f, 0x6e, 0x2f, 0x53, 0x71, 0x75, 0x65, 0x65, 0x7a,
  0x65, 0x3b, 0x66, 0x75, 0x6e, 0x63, 0x74, 0x69, 0x6f, 0x6e, 0x61, 0x6c,
  0x5f, 0x31, 0x2f, 0x62, 0x61, 0x74, 0x63, 0x68, 0x5f, 0x6e, 0x6f, 0x72,
  0x6d, 0x61, 0x6c, 0x69, 0x7a, 0x61, 0x74, 0x69, 0x6f, 0x6e, 0x5f, 0x31,
  0x5f, 0x32, 0x2f, 0x62, 0x61, 0x74, 0x63, 0x68, 0x6e, 0x6f, 0x72, 0x6d,
  0x2f, 0x6d, 0x75, 0x6c, 0x5f, 0x31, 0x3b, 0x66, 0x75, 0x6e, 0x63, 0x74,
  0x69, 0x6f, 0x6e, 0x61, 0x6c, 0x5f, 0x31, 0x2f, 0x62, 0x61, 0x74, 0x63,
  0x68, 0x5f, 0x6e, 0x6f, 0x72, 0x6d, 0x61, 0x6c, 0x69, 0x7a, 0x61, 0x74,
  0x69, 0x6f, 0x6e, 0x5f, 0x31, 0x5f, 0x32, 0x2f, 0x62, 0x61, 0x74, 0x63,
  0x68, 0x6e, 0x6f, 0x72, 0x6d, 0x2f, 0x6d, 0x75, 0x6c, 0x3b, 0x66, 0x75,
  0x6e, 0x63, 0x74, 0x69, 0x6f, 0x6e, 0x61, 0x6c, 0x5f, 0x31, 0x2f, 0x62,
  0x61, 0x74, 0x63, 0x68, 0x5f, 0x6e, 0x6f, 0x72, 0x6d, 0x61, 0x6c, 0x69,
  0x7a, 0x61, 0x74, 0x69, 0x6f, 0x6e, 0x5f, 0x31, 0x5f, 0x32, 0x2f, 0x62,
  0x61, 0x74, 0x63, 0x68, 0x6e, 0x6f, 0x72, 0x6d, 0x2f, 0x73, 0x75, 0x62,
  0x3b, 0x66, 0x75, 0x6e, 0x63, 0x74, 0x69, 0x6f, 0x6e, 0x61, 0x6c, 0x5f,
  0x31, 0x2f, 0x63, 0x6f, 0x6e, 0x76, 0x31, 0x64, 0x5f, 0x31, 0x5f, 0x32,
  0x2f, 0x63, 0x6f, 0x6e, 0x76, 0x6f, 0x6c, 0x75, 0x74, 0x69, 0x6f, 0x6e,
  0x31, 0x00, 0x00, 0x00, 0x04, 0x00, 0x00, 0x00, 0x01, 0x00, 0x00, 0x00,
  0x01, 0x00, 0x00, 0x00, 0x64, 0x00, 0x00, 0x00, 0x20, 0x00, 0x00, 0x00,
  0xc6, 0xe9, 0xff, 0xff, 0x00, 0x00, 0x00, 0x01, 0x18, 0x00, 0x00, 0x00,
  0x28, 0x00, 0x00, 0x00, 0x44, 0x00, 0x00, 0x00, 0x16, 0x00, 0x00, 0x00,
  0x00, 0x00, 0x00, 0x09, 0x6c, 0x00, 0x00, 0x00, 0x04, 0x00, 0x00, 0x00,
  0xff, 0xff, 0xff, 0xff, 0x01, 0x00, 0x00, 0x00, 0x64, 0x00, 0x00, 0x00,
  0x10, 0x00, 0x00, 0x00, 0xb4, 0xe9, 0xff, 0xff, 0x08, 0x00, 0x00, 0x00,
  0x10, 0x00, 0x00, 0x00, 0x01, 0x00, 0x00, 0x00, 0x80, 0xff, 0xff, 0xff,
  0xff, 0xff, 0xff, 0xff, 0x01, 0x00, 0x00, 0x00, 0x68, 0xf7, 0xbb, 0x3d,
  0x2e, 0x00, 0x00, 0x00, 0x66, 0x75, 0x6e, 0x63, 0x74, 0x69, 0x6f, 0x6e,
  0x61, 0x6c, 0x5f, 0x31, 0x2f, 0x63, 0x6f, 0x6e, 0x76, 0x31, 0x64, 0x5f,
  0x31, 0x5f, 0x32, 0x2f, 0x63, 0x6f, 0x6e, 0x76, 0x6f, 0x6c, 0x75, 0x74,
  0x69, 0x6f, 0x6e, 0x2f, 0x45, 0x78, 0x70, 0x61, 0x6e, 0x64, 0x44, 0x69,
  0x6d, 0x73, 0x00, 0x00, 0x04, 0x00, 0x00, 0x00, 0x01, 0x00, 0x00, 0x00,
  0x01, 0x00, 0x00, 0x00, 0x64, 0x00, 0x00, 0x00, 0x10, 0x00, 0x00, 0x00,
  0x62, 0xea, 0xff, 0xff, 0x00, 0x00, 0x00, 0x01, 0x18, 0x00, 0x00, 0x00,
  0x24, 0x00, 0x00, 0x00, 0x40, 0x00, 0x00, 0x00, 0x15, 0x00, 0x00, 0x00,
  0x00, 0x00, 0x00, 0x09, 0x68, 0x00, 0x00, 0x00, 0x03, 0x00, 0x00, 0x00,
  0xff, 0xff, 0xff, 0xff, 0x64, 0x00, 0x00, 0x00, 0x10, 0x00, 0x00, 0x00,
  0x4c, 0xea, 0xff, 0xff, 0x08, 0x00, 0x00, 0x00, 0x10, 0x00, 0x00, 0x00,
  0x01, 0x00, 0x00, 0x00, 0x80, 0xff, 0xff, 0xff, 0xff, 0xff, 0xff, 0xff,
  0x01, 0x00, 0x00, 0x00, 0x68, 0xf7, 0xbb, 0x3d, 0x2f, 0x00, 0x00, 0x00,
  0x66, 0x75, 0x6e, 0x63, 0x74, 0x69, 0x6f, 0x6e, 0x61, 0x6c, 0x5f, 0x31,
  0x2f, 0x6d, 0x61, 0x78, 0x5f, 0x70, 0x6f, 0x6f, 0x6c, 0x69, 0x6e, 0x67,
  0x31, 0x64, 0x5f, 0x31, 0x2f, 0x4d, 0x61, 0x78, 0x50, 0x6f, 0x6f, 0x6c,
  0x31, 0x64, 0x2f, 0x53, 0x71, 0x75, 0x65, 0x65, 0x7a, 0x65, 0x31, 0x00,
  0x03, 0x00, 0x00, 0x00, 0x01, 0x00, 0x00, 0x00, 0x64, 0x00, 0x00, 0x00,
  0x10, 0x00, 0x00, 0x00, 0xf6, 0xea, 0xff, 0xff, 0x00, 0x00, 0x00, 0x01,
  0x18, 0x00, 0x00, 0x00, 0x28, 0x00, 0x00, 0x00, 0x48, 0x00, 0x00, 0x00,
  0x14, 0x00, 0x00, 0x00, 0x00, 0x00, 0x00, 0x09, 0x68, 0x00, 0x00, 0x00,
  0x04, 0x00, 0x00, 0x00, 0xff, 0xff, 0xff, 0xff, 0x01, 0x00, 0x00, 0x00,
  0x64, 0x00, 0x00, 0x00, 0x10, 0x00, 0x00, 0x00, 0xe4, 0xea, 0xff, 0xff,
  0x08, 0x00, 0x00, 0x00, 0x14, 0x00, 0x00, 0x00, 0x01, 0x00, 0x00, 0x00,
  0x80, 0xff, 0xff, 0xff, 0xff, 0xff, 0xff, 0xff, 0x00, 0x00, 0x00, 0x00,
  0x01, 0x00, 0x00, 0x00, 0x68, 0xf7, 0xbb, 0x3d, 0x26, 0x00, 0x00, 0x00,
  0x66, 0x75, 0x6e, 0x63, 0x74, 0x69, 0x6f, 0x6e, 0x61, 0x6c, 0x5f, 0x31,
  0x2f, 0x6d, 0x61, 0x78, 0x5f, 0x70, 0x6f, 0x6f, 0x6c, 0x69, 0x6e, 0x67,
  0x31, 0x64, 0x5f, 0x31, 0x2f, 0x4d, 0x61, 0x78, 0x50, 0x6f, 0x6f, 0x6c,
  0x31, 0x64, 0x00, 0x00, 0x04, 0x00, 0x00, 0x00, 0x01, 0x00, 0x00, 0x00,
  0x01, 0x00, 0x00, 0x00, 0x64, 0x00, 0x00, 0x00, 0x10, 0x00, 0x00, 0x00,
  0x8e, 0xeb, 0xff, 0xff, 0x00, 0x00, 0x00, 0x01, 0x18, 0x00, 0x00, 0x00,
  0x28, 0x00, 0x00, 0x00, 0x48, 0x00, 0x00, 0x00, 0x13, 0x00, 0x00, 0x00,
  0x00, 0x00, 0x00, 0x09, 0x74, 0x00, 0x00, 0x00, 0x04, 0x00, 0x00, 0x00,
  0xff, 0xff, 0xff, 0xff, 0x01, 0x00, 0x00, 0x00, 0xc8, 0x00, 0x00, 0x00,
  0x10, 0x00, 0x00, 0x00, 0x7c, 0xeb, 0xff, 0xff, 0x08, 0x00, 0x00, 0x00,
  0x14, 0x00, 0x00, 0x00, 0x01, 0x00, 0x00, 0x00, 0x80, 0xff, 0xff, 0xff,
  0xff, 0xff, 0xff, 0xff, 0x00, 0x00, 0x00, 0x00, 0x01, 0x00, 0x00, 0x00,
  0x68, 0xf7, 0xbb, 0x3d, 0x31, 0x00, 0x00, 0x00, 0x66, 0x75, 0x6e, 0x63,
  0x74, 0x69, 0x6f, 0x6e, 0x61, 0x6c, 0x5f, 0x31, 0x2f, 0x6d, 0x61, 0x78,
  0x5f, 0x70, 0x6f, 0x6f, 0x6c, 0x69, 0x6e, 0x67, 0x31, 0x64, 0x5f, 0x31,
  0x2f, 0x4d, 0x61, 0x78, 0x50, 0x6f, 0x6f, 0x6c, 0x31, 0x64, 0x2f, 0x45,
  0x78, 0x70, 0x61, 0x6e, 0x64, 0x44, 0x69, 0x6d, 0x73, 0x00, 0x00, 0x00,
  0x04, 0x00, 0x00, 0x00, 0x01, 0x00, 0x00, 0x00, 0x01, 0x00, 0x00, 0x00,
  0xc8, 0x00, 0x00, 0x00, 0x10, 0x00, 0x00, 0x00, 0x32, 0xec, 0xff, 0xff,
  0x00, 0x00, 0x00, 0x01, 0x18, 0x00, 0x00, 0x00, 0x24, 0x00, 0x00, 0x00,
  0x44, 0x00, 0x00, 0x00, 0x12, 0x00, 0x00, 0x00, 0x00, 0x00, 0x00, 0x09,
  0x50, 0x01, 0x00, 0x00, 0x03, 0x00, 0x00, 0x00, 0xff, 0xff, 0xff, 0xff,
  0xc8, 0x00, 0x00, 0x00, 0x10, 0x00, 0x00, 0x00, 0x1c, 0xec, 0xff, 0xff,
  0x08, 0x00, 0x00, 0x00, 0x14, 0x00, 0x00, 0x00, 0x01, 0x00, 0x00, 0x00,
  0x80, 0xff, 0xff, 0xff, 0xff, 0xff, 0xff, 0xff, 0x00, 0x00, 0x00, 0x00,
  0x01, 0x00, 0x00, 0x00, 0x68, 0xf7, 0xbb, 0x3d, 0x10, 0x01, 0x00, 0x00,
  0x66, 0x75, 0x6e, 0x63, 0x74, 0x69, 0x6f, 0x6e, 0x61, 0x6c, 0x5f, 0x31,
  0x2f, 0x61, 0x63, 0x74, 0x69, 0x76, 0x61, 0x74, 0x69, 0x6f, 0x6e, 0x5f,
  0x31, 0x2f, 0x52, 0x65, 0x6c, 0x75, 0x3b, 0x66, 0x75, 0x6e, 0x63, 0x74,
  0x69, 0x6f, 0x6e, 0x61, 0x6c, 0x5f, 0x31, 0x2f, 0x62, 0x61, 0x74, 0x63,
  0x68, 0x5f, 0x6e, 0x6f, 0x72, 0x6d, 0x61, 0x6c, 0x69, 0x7a, 0x61, 0x74,
  0x69, 0x6f, 0x6e, 0x5f, 0x31, 0x2f, 0x62, 0x61, 0x74, 0x63, 0x68, 0x6e,
  0x6f, 0x72, 0x6d, 0x2f, 0x61, 0x64, 0x64, 0x5f, 0x31, 0x3b, 0x66, 0x75,
  0x6e, 0x63, 0x74, 0x69, 0x6f, 0x6e, 0x61, 0x6c, 0x5f, 0x31, 0x2f, 0x63,
  0x6f, 0x6e, 0x76, 0x31, 0x64, 0x5f, 0x31, 0x2f, 0x63, 0x6f, 0x6e, 0x76,
  0x6f, 0x6c, 0x75, 0x74, 0x69, 0x6f, 0x6e, 0x2f, 0x53, 0x71, 0x75, 0x65,
  0x65, 0x7a, 0x65, 0x3b, 0x66, 0x75, 0x6e, 0x63, 0x74, 0x69, 0x6f, 0x6e,
  0x61, 0x6c, 0x5f, 0x31, 0x2f, 0x62, 0x61, 0x74, 0x63, 0x68, 0x5f, 0x6e,
  0x6f, 0x72, 0x6d, 0x61, 0x6c, 0x69, 0x7a, 0x61, 0x74, 0x69, 0x6f, 0x6e,
  0x5f, 0x31, 0x2f, 0x62, 0x61, 0x74, 0x63, 0x68, 0x6e, 0x6f, 0x72, 0x6d,
  0x2f, 0x6d, 0x75, 0x6c, 0x5f, 0x31, 0x3b, 0x66, 0x75, 0x6e, 0x63, 0x74,
  0x69, 0x6f, 0x6e, 0x61, 0x6c, 0x5f, 0x31, 0x2f, 0x62, 0x61, 0x74, 0x63,
  0x68, 0x5f, 0x6e, 0x6f, 0x72, 0x6d, 0x61, 0x6c, 0x69, 0x7a, 0x61, 0x74,
  0x69, 0x6f, 0x6e, 0x5f, 0x31, 0x2f, 0x62, 0x61, 0x74, 0x63, 0x68, 0x6e,
  0x6f, 0x72, 0x6d, 0x2f, 0x6d, 0x75, 0x6c, 0x3b, 0x66, 0x75, 0x6e, 0x63,
  0x74, 0x69, 0x6f, 0x6e, 0x61, 0x6c, 0x5f, 0x31, 0x2f, 0x62, 0x61, 0x74,
  0x63, 0x68, 0x5f, 0x6e, 0x6f, 0x72, 0x6d, 0x61, 0x6c, 0x69, 0x7a, 0x61,
  0x74, 0x69, 0x6f, 0x6e, 0x5f, 0x31, 0x2f, 0x62, 0x61, 0x74, 0x63, 0x68,
  0x6e, 0x6f, 0x72, 0x6d, 0x2f, 0x73, 0x75, 0x62, 0x00, 0x00, 0x00, 0x00,
  0x03, 0x00, 0x00, 0x00, 0x01, 0x00, 0x00, 0x00, 0xc8, 0x00, 0x00, 0x00,
  0x10, 0x00, 0x00, 0x00, 0xae, 0xed, 0xff, 0xff, 0x00, 0x00, 0x00, 0x01,
  0x18, 0x00, 0x00, 0x00, 0x28, 0x00, 0x00, 0x00, 0x44, 0x00, 0x00, 0x00,
  0x11, 0x00, 0x00, 0x00, 0x00, 0x00, 0x00, 0x09, 0x70, 0x01, 0x00, 0x00,
  0x04, 0x00, 0x00, 0x00, 0xff, 0xff, 0xff, 0xff, 0x01, 0x00, 0x00, 0x00,
  0xc8, 0x00, 0x00, 0x00, 0x10, 0x00, 0x00, 0x00, 0x9c, 0xed, 0xff, 0xff,
  0x08, 0x00, 0x00, 0x00, 0x10, 0x00, 0x00, 0x00, 0x01, 0x00, 0x00, 0x00,
  0x80, 0xff, 0xff, 0xff, 0xff, 0xff, 0xff, 0xff, 0x01, 0x00, 0x00, 0x00,
  0x68, 0xf7, 0xbb, 0x3d, 0x33, 0x01, 0x00, 0x00, 0x66, 0x75, 0x6e, 0x63,
  0x74, 0x69, 0x6f, 0x6e, 0x61, 0x6c, 0x5f, 0x31, 0x2f, 0x61, 0x63, 0x74,
  0x69, 0x76, 0x61, 0x74, 0x69, 0x6f, 0x6e, 0x5f, 0x31, 0x2f, 0x52, 0x65,
  0x6c, 0x75, 0x3b, 0x66, 0x75, 0x6e, 0x63, 0x74, 0x69, 0x6f, 0x6e, 0x61,
  0x6c, 0x5f, 0x31, 0x2f, 0x62, 0x61, 0x74, 0x63, 0x68, 0x5f, 0x6e, 0x6f,
  0x72, 0x6d, 0x61, 0x6c, 0x69, 0x7a, 0x61, 0x74, 0x69, 0x6f, 0x6e, 0x5f,
  0x31, 0x2f, 0x62, 0x61, 0x74, 0x63, 0x68, 0x6e, 0x6f, 0x72, 0x6d, 0x2f,
  0x61, 0x64, 0x64, 0x5f, 0x31, 0x3b, 0x66, 0x75, 0x6e, 0x63, 0x74, 0x69,
  0x6f, 0x6e, 0x61, 0x6c, 0x5f, 0x31, 0x2f, 0x63, 0x6f, 0x6e, 0x76, 0x31,
  0x64, 0x5f, 0x31, 0x2f, 0x63, 0x6f, 0x6e, 0x76, 0x6f, 0x6c, 0x75, 0x74,
  0x69, 0x6f, 0x6e, 0x2f, 0x53, 0x71, 0x75, 0x65, 0x65, 0x7a, 0x65, 0x3b,
  0x66, 0x75, 0x6e, 0x63, 0x74, 0x69, 0x6f, 0x6e, 0x61, 0x6c, 0x5f, 0x31,
  0x2f, 0x62, 0x61, 0x74, 0x63, 0x68, 0x5f, 0x6e, 0x6f, 0x72, 0x6d, 0x61,
  0x6c, 0x69, 0x7a, 0x61, 0x74, 0x69, 0x6f, 0x6e, 0x5f, 0x31, 0x2f, 0x62,
  0x61, 0x74, 0x63, 0x68, 0x6e, 0x6f, 0x72, 0x6d, 0x2f, 0x6d, 0x75, 0x6c,
  0x5f, 0x31, 0x3b, 0x66, 0x75, 0x6e, 0x63, 0x74, 0x69, 0x6f, 0x6e, 0x61,
  0x6c, 0x5f, 0x31, 0x2f, 0x62, 0x61, 0x74, 0x63, 0x68, 0x5f, 0x6e, 0x6f,
  0x72, 0x6d, 0x61, 0x6c, 0x69, 0x7a, 0x61, 0x74, 0x69, 0x6f, 0x6e, 0x5f,
  0x31, 0x2f, 0x62, 0x61, 0x74, 0x63, 0x68, 0x6e, 0x6f, 0x72, 0x6d, 0x2f,
  0x6d, 0x75, 0x6c, 0x3b, 0x66, 0x75, 0x6e, 0x63, 0x74, 0x69, 0x6f, 0x6e,
  0x61, 0x6c, 0x5f, 0x31, 0x2f, 0x62, 0x61, 0x74, 0x63, 0x68, 0x5f, 0x6e,
  0x6f, 0x72, 0x6d, 0x61, 0x6c, 0x69, 0x7a, 0x61, 0x74, 0x69, 0x6f, 0x6e,
  0x5f, 0x31, 0x2f, 0x62, 0x61, 0x74, 0x63, 0x68, 0x6e, 0x6f, 0x72, 0x6d,
  0x2f, 0x73, 0x75, 0x62, 0x3b, 0x66, 0x75, 0x6e, 0x63, 0x74, 0x69, 0x6f,
  0x6e, 0x61, 0x6c, 0x5f, 0x31, 0x2f, 0x63, 0x6f, 0x6e, 0x76, 0x31, 0x64,
  0x5f, 0x31, 0x2f, 0x63, 0x6f, 0x6e, 0x76, 0x6f, 0x6c, 0x75, 0x74, 0x69,
  0x6f, 0x6e, 0x31, 0x00, 0x04, 0x00, 0x00, 0x00, 0x01, 0x00, 0x00, 0x00,
  0x01, 0x00, 0x00, 0x00, 0xc8, 0x00, 0x00, 0x00, 0x10, 0x00, 0x00, 0x00,
  0x4e, 0xef, 0xff, 0xff, 0x00, 0x00, 0x00, 0x01, 0x18, 0x00, 0x00, 0x00,
  0x28, 0x00, 0x00, 0x00, 0x48, 0x00, 0x00, 0x00, 0x10, 0x00, 0x00, 0x00,
  0x00, 0x00, 0x00, 0x09, 0x70, 0x00, 0x00, 0x00, 0x04, 0x00, 0x00, 0x00,
  0xff, 0xff, 0xff, 0xff, 0x01, 0x00, 0x00, 0x00, 0xc8, 0x00, 0x00, 0x00,
  0x03, 0x00, 0x00, 0x00, 0x3c, 0xef, 0xff, 0xff, 0x08, 0x00, 0x00, 0x00,
  0x14, 0x00, 0x00, 0x00, 0x01, 0x00, 0x00, 0x00, 0xf1, 0xff, 0xff, 0xff,
  0xff, 0xff, 0xff, 0xff, 0x00, 0x00, 0x00, 0x00, 0x01, 0x00, 0x00, 0x00,
  0xe8, 0x63, 0x3e, 0x3e, 0x2c, 0x00, 0x00, 0x00, 0x66, 0x75, 0x6e, 0x63,
  0x74, 0x69, 0x6f, 0x6e, 0x61, 0x6c, 0x5f, 0x31, 0x2f, 0x63, 0x6f, 0x6e,
  0x76, 0x31, 0x64, 0x5f, 0x31, 0x2f, 0x63, 0x6f, 0x6e, 0x76, 0x6f, 0x6c,
  0x75, 0x74, 0x69, 0x6f, 0x6e, 0x2f, 0x45, 0x78, 0x70, 0x61, 0x6e, 0x64,
  0x44, 0x69, 0x6d, 0x73, 0x00, 0x00, 0x00, 0x00, 0x04, 0x00, 0x00, 0x00,
  0x01, 0x00, 0x00, 0x00, 0x01, 0x00, 0x00, 0x00, 0xc8, 0x00, 0x00, 0x00,
  0x03, 0x00, 0x00, 0x00, 0x42, 0xf0, 0xff, 0xff, 0x00, 0x00, 0x00, 0x01,
  0x14, 0x00, 0x00, 0x00, 0xe4, 0x00, 0x00, 0x00, 0x0f, 0x00, 0x00, 0x00,
  0x00, 0x00, 0x00, 0x09, 0x8c, 0x01, 0x00, 0x00, 0xc4, 0xef, 0xff, 0xff,
  0x08, 0x00, 0x00, 0x00, 0x88, 0x00, 0x00, 0x00, 0x10, 0x00, 0x00, 0x00,
  0x00, 0x00, 0x00, 0x00, 0x00, 0x00, 0x00, 0x00, 0x00, 0x00, 0x00, 0x00,
  0x00, 0x00, 0x00, 0x00, 0x00, 0x00, 0x00, 0x00, 0x00, 0x00, 0x00, 0x00,
  0x00, 0x00, 0x00, 0x00, 0x00, 0x00, 0x00, 0x00, 0x00, 0x00, 0x00, 0x00,
  0x00, 0x00, 0x00, 0x00, 0x00, 0x00, 0x00, 0x00, 0x00, 0x00, 0x00, 0x00,
  0x00, 0x00, 0x00, 0x00, 0x00, 0x00, 0x00, 0x00, 0x00, 0x00, 0x00, 0x00,
  0x00, 0x00, 0x00, 0x00, 0x00, 0x00, 0x00, 0x00, 0x00, 0x00, 0x00, 0x00,
  0x00, 0x00, 0x00, 0x00, 0x00, 0x00, 0x00, 0x00, 0x00, 0x00, 0x00, 0x00,
  0x00, 0x00, 0x00, 0x00, 0x00, 0x00, 0x00, 0x00, 0x00, 0x00, 0x00, 0x00,
  0x00, 0x00, 0x00, 0x00, 0x00, 0x00, 0x00, 0x00, 0x00, 0x00, 0x00, 0x00,
  0x00, 0x00, 0x00, 0x00, 0x00, 0x00, 0x00, 0x00, 0x00, 0x00, 0x00, 0x00,
  0x00, 0x00, 0x00, 0x00, 0x00, 0x00, 0x00, 0x00, 0x10, 0x00, 0x00, 0x00,
  0xb8, 0x42, 0xec, 0x3a, 0x28, 0xd3, 0x0e, 0x3b, 0x90, 0xad, 0xc7, 0x3a,
  0x70, 0x3f, 0x08, 0x3b, 0xf7, 0x56, 0x17, 0x3b, 0x79, 0x8e, 0xbc, 0x3a,
  0x33, 0x15, 0x14, 0x3b, 0xaf, 0x8f, 0x9f, 0x3a, 0xa6, 0x38, 0x07, 0x3b,
  0x8a, 0x3e, 0x20, 0x3b, 0xf4, 0xb5, 0x32, 0x3b, 0x37, 0xd2, 0xb5, 0x3a,
  0x89, 0x01, 0x5b, 0x3b, 0x1d, 0xec, 0x0c, 0x3b, 0x4b, 0x70, 0x08, 0x3b,
  0xf0, 0xfc, 0x07, 0x3b, 0xaf, 0x00, 0x00, 0x00, 0x66, 0x75, 0x6e, 0x63,
  0x74, 0x69, 0x6f, 0x6e, 0x61, 0x6c, 0x5f, 0x31, 0x2f, 0x62, 0x61, 0x74,
  0x63, 0x68, 0x5f, 0x6e, 0x6f, 0x72, 0x6d, 0x61, 0x6c, 0x69, 0x7a, 0x61,
  0x74, 0x69, 0x6f, 0x6e, 0x5f, 0x31, 0x2f, 0x62, 0x61, 0x74, 0x63, 0x68,
  0x6e, 0x6f, 0x72, 0x6d, 0x2f, 0x6d, 0x75, 0x6c, 0x5f, 0x31, 0x3b, 0x66,
  0x75, 0x6e, 0x63, 0x74, 0x69, 0x6f, 0x6e, 0x61, 0x6c, 0x5f, 0x31, 0x2f,
  0x63, 0x6f, 0x6e, 0x76, 0x31, 0x64, 0x5f, 0x31, 0x2f, 0x63, 0x6f, 0x6e,
  0x76, 0x6f, 0x6c, 0x75, 0x74, 0x69, 0x6f, 0x6e, 0x2f, 0x53, 0x71, 0x75,
  0x65, 0x65, 0x7a, 0x65, 0x3b, 0x66, 0x75, 0x6e, 0x63, 0x74, 0x69, 0x6f,
  0x6e, 0x61, 0x6c, 0x5f, 0x31, 0x2f, 0x62, 0x61, 0x74, 0x63, 0x68, 0x5f,
  0x6e, 0x6f, 0x72, 0x6d, 0x61, 0x6c, 0x69, 0x7a, 0x61, 0x74, 0x69, 0x6f,
  0x6e, 0x5f, 0x31, 0x2f, 0x62, 0x61, 0x74, 0x63, 0x68, 0x6e, 0x6f, 0x72,
  0x6d, 0x2f, 0x6d, 0x75, 0x6c, 0x3b, 0x66, 0x75, 0x6e, 0x63, 0x74, 0x69,
  0x6f, 0x6e, 0x61, 0x6c, 0x5f, 0x31, 0x2f, 0x63, 0x6f, 0x6e, 0x76, 0x31,
  0x64, 0x5f, 0x31, 0x2f, 0x63, 0x6f, 0x6e, 0x76, 0x6f, 0x6c, 0x75, 0x74,
  0x69, 0x6f, 0x6e, 0x00, 0x04, 0x00, 0x00, 0x00, 0x10, 0x00, 0x00, 0x00,
  0x01, 0x00, 0x00, 0x00, 0x19, 0x00, 0x00, 0x00, 0x03, 0x00, 0x00, 0x00,
  0xfa, 0xf1, 0xff, 0xff, 0x00, 0x00, 0x00, 0x01, 0x14, 0x00, 0x00, 0x00,
  0xe4, 0x00, 0x00, 0x00, 0x0e, 0x00, 0x00, 0x00, 0x00, 0x00, 0x00, 0x02,
  0x10, 0x02, 0x00, 0x00, 0x7c, 0xf1, 0xff, 0xff, 0x08, 0x00, 0x00, 0x00,
  0x88, 0x00, 0x00, 0x00, 0x10, 0x00, 0x00, 0x00, 0x00, 0x00, 0x00, 0x00,
  0x00, 0x00, 0x00, 0x00, 0x00, 0x00, 0x00, 0x00, 0x00, 0x00, 0x00, 0x00,
  0x00, 0x00, 0x00, 0x00, 0x00, 0x00, 0x00, 0x00, 0x00, 0x00, 0x00, 0x00,
  0x00, 0x00, 0x00, 0x00, 0x00, 0x00, 0x00, 0x00, 0x00, 0x00, 0x00, 0x00,
  0x00, 0x00, 0x00, 0x00, 0x00, 0x00, 0x00, 0x00, 0x00, 0x00, 0x00, 0x00,
  0x00, 0x00, 0x00, 0x00, 0x00, 0x00, 0x00, 0x00, 0x00, 0x00, 0x00, 0x00,
  0x00, 0x00, 0x00, 0x00, 0x00, 0x00, 0x00, 0x00, 0x00, 0x00, 0x00, 0x00,
  0x00, 0x00, 0x00, 0x00, 0x00, 0x00, 0x00, 0x00, 0x00, 0x00, 0x00, 0x00,
  0x00, 0x00, 0x00, 0x00, 0x00, 0x00, 0x00, 0x00, 0x00, 0x00, 0x00, 0x00,
  0x00, 0x00, 0x00, 0x00, 0x00, 0x00, 0x00, 0x00, 0x00, 0x00, 0x00, 0x00,
  0x00, 0x00, 0x00, 0x00, 0x00, 0x00, 0x00, 0x00, 0x00, 0x00, 0x00, 0x00,
  0x00, 0x00, 0x00, 0x00, 0x10, 0x00, 0x00, 0x00, 0xb8, 0xb5, 0xaf, 0x39,
  0xea, 0x70, 0xd4, 0x39, 0xbe, 0x80, 0x94, 0x39, 0x82, 0xa8, 0xca, 0x39,
  0x36, 0x1b, 0xe1, 0x39, 0x54, 0x3b, 0x8c, 0x39, 0x0c, 0x43, 0xdc, 0x39,
  0xd2, 0x55, 0x6d, 0x39, 0xa1, 0x21, 0xc9, 0x39, 0xe8, 0x59, 0xee, 0x39,
  0xc9, 0xe8, 0x04, 0x3a, 0xfa, 0x38, 0x87, 0x39, 0x9c, 0xe0, 0x22, 0x3a,
  0x79, 0x9c, 0xd1, 0x39, 0x2d, 0xf1, 0xca, 0x39, 0x98, 0x45, 0xca, 0x39,
  0x32, 0x01, 0x00, 0x00, 0x66, 0x75, 0x6e, 0x63, 0x74, 0x69, 0x6f, 0x6e,
  0x61, 0x6c, 0x5f, 0x31, 0x2f, 0x61, 0x63, 0x74, 0x69, 0x76, 0x61, 0x74,
  0x69, 0x6f, 0x6e, 0x5f, 0x31, 0x2f, 0x52, 0x65, 0x6c, 0x75, 0x3b, 0x66,
  0x75, 0x6e, 0x63, 0x74, 0x69, 0x6f, 0x6e, 0x61, 0x6c, 0x5f, 0x31, 0x2f,
  0x62, 0x61, 0x74, 0x63, 0x68, 0x5f, 0x6e, 0x6f, 0x72, 0x6d, 0x61, 0x6c,
  0x69, 0x7a, 0x61, 0x74, 0x69, 0x6f, 0x6e, 0x5f, 0x31, 0x2f, 0x62, 0x61,
  0x74, 0x63, 0x68, 0x6e, 0x6f, 0x72, 0x6d, 0x2f, 0x61, 0x64, 0x64, 0x5f,
  0x31, 0x3b, 0x66, 0x75, 0x6e, 0x63, 0x74, 0x69, 0x6f, 0x6e, 0x61, 0x6c,
  0x5f, 0x31, 0x2f, 0x63, 0x6f, 0x6e, 0x76, 0x31, 0x64, 0x5f, 0x31, 0x2f,
  0x63, 0x6f, 0x6e, 0x76, 0x6f, 0x6c, 0x75, 0x74, 0x69, 0x6f, 0x6e, 0x2f,
  0x53, 0x71, 0x75, 0x65, 0x65, 0x7a, 0x65, 0x3b, 0x66, 0x75, 0x6e, 0x63,
  0x74, 0x69, 0x6f, 0x6e, 0x61, 0x6c, 0x5f, 0x31, 0x2f, 0x62, 0x61, 0x74,
  0x63, 0x68, 0x5f, 0x6e, 0x6f, 0x72, 0x6d, 0x61, 0x6c, 0x69, 0x7a, 0x61,
  0x74, 0x69, 0x6f, 0x6e, 0x5f, 0x31, 0x2f, 0x62, 0x61, 0x74, 0x63, 0x68,
  0x6e, 0x6f, 0x72, 0x6d, 0x2f, 0x6d, 0x75, 0x6c, 0x5f, 0x31, 0x3b, 0x66,
  0x75, 0x6e, 0x63, 0x74, 0x69, 0x6f, 0x6e, 0x61, 0x6c, 0x5f, 0x31, 0x2f,
  0x62, 0x61, 0x74, 0x63, 0x68, 0x5f, 0x6e, 0x6f, 0x72, 0x6d, 0x61, 0x6c,
  0x69, 0x7a, 0x61, 0x74, 0x69, 0x6f, 0x6e, 0x5f, 0x31, 0x2f, 0x62, 0x61,
  0x74, 0x63, 0x68, 0x6e, 0x6f, 0x72, 0x6d, 0x2f, 0x6d, 0x75, 0x6c, 0x3b,
  0x66, 0x75, 0x6e, 0x63, 0x74, 0x69, 0x6f, 0x6e, 0x61, 0x6c, 0x5f, 0x31,
  0x2f, 0x62, 0x61, 0x74, 0x63, 0x68, 0x5f, 0x6e, 0x6f, 0x72, 0x6d, 0x61,
  0x6c, 0x69, 0x7a, 0x61, 0x74, 0x69, 0x6f, 0x6e, 0x5f, 0x31, 0x2f, 0x62,
  0x61, 0x74, 0x63, 0x68, 0x6e, 0x6f, 0x72, 0x6d, 0x2f, 0x73, 0x75, 0x62,
  0x3b, 0x66, 0x75, 0x6e, 0x63, 0x74, 0x69, 0x6f, 0x6e, 0x61, 0x6c, 0x5f,
  0x31, 0x2f, 0x63, 0x6f, 0x6e, 0x76, 0x31, 0x64, 0x5f, 0x31, 0x2f, 0x63,
  0x6f, 0x6e, 0x76, 0x6f, 0x6c, 0x75, 0x74, 0x69, 0x6f, 0x6e, 0x00, 0x00,
  0x01, 0x00, 0x00, 0x00, 0x10, 0x00, 0x00, 0x00, 0x2a, 0xf4, 0xff, 0xff,
  0x00, 0x00, 0x00, 0x01, 0x14, 0x00, 0x00, 0x00, 0xa4, 0x01, 0x00, 0x00,
  0x0d, 0x00, 0x00, 0x00, 0x00, 0x00, 0x00, 0x09, 0x54, 0x02, 0x00, 0x00,
  0xac, 0xf3, 0xff, 0xff, 0x08, 0x00, 0x00, 0x00, 0x08, 0x01, 0x00, 0x00,
  0x20, 0x00, 0x00, 0x00, 0x00, 0x00, 0x00, 0x00, 0x00, 0x00, 0x00, 0x00,
  0x00, 0x00, 0x00, 0x00, 0x00, 0x00, 0x00, 0x00, 0x00, 0x00, 0x00, 0x00,
  0x00, 0x00, 0x00, 0x00, 0x00, 0x00, 0x00, 0x00, 0x00, 0x00, 0x00, 0x00,
  0x00, 0x00, 0x00, 0x00, 0x00, 0x00, 0x00, 0x00, 0x00, 0x00, 0x00, 0x00,
  0x00, 0x00, 0x00, 0x00, 0x00, 0x00, 0x00, 0x00, 0x00, 0x00, 0x00, 0x00,
  0x00, 0x00, 0x00, 0x00, 0x00, 0x00, 0x00, 0x00, 0x00, 0x00, 0x00, 0x00,
  0x00, 0x00, 0x00, 0x00, 0x00, 0x00, 0x00, 0x00, 0x00, 0x00, 0x00, 0x00,
  0x00, 0x00, 0x00, 0x00, 0x00, 0x00, 0x00, 0x00, 0x00, 0x00, 0x00, 0x00,
  0x00, 0x00, 0x00, 0x00, 0x00, 0x00, 0x00, 0x00, 0x00, 0x00, 0x00, 0x00,
  0x00, 0x00, 0x00, 0x00, 0x00, 0x00, 0x00, 0x00, 0x00, 0x00, 0x00, 0x00,
  0x00, 0x00, 0x00, 0x00, 0x00, 0x00, 0x00, 0x00, 0x00, 0x00, 0x00, 0x00,
  0x00, 0x00, 0x00, 0x00, 0x00, 0x00, 0x00, 0x00, 0x00, 0x00, 0x00, 0x00,
  0x00, 0x00, 0x00, 0x00, 0x00, 0x00, 0x00, 0x00, 0x00, 0x00, 0x00, 0x00,
  0x00, 0x00, 0x00, 0x00, 0x00, 0x00, 0x00, 0x00, 0x00, 0x00, 0x00, 0x00,
  0x00, 0x00, 0x00, 0x00, 0x00, 0x00, 0x00, 0x00, 0x00, 0x00, 0x00, 0x00,
  0x00, 0x00, 0x00, 0x00, 0x00, 0x00, 0x00, 0x00, 0x00, 0x00, 0x00, 0x00,
  0x00, 0x00, 0x00, 0x00, 0x00, 0x00, 0x00, 0x00, 0x00, 0x00, 0x00, 0x00,
  0x00, 0x00, 0x00, 0x00, 0x00, 0x00, 0x00, 0x00, 0x00, 0x00, 0x00, 0x00,
  0x00, 0x00, 0x00, 0x00, 0x00, 0x00, 0x00, 0x00, 0x00, 0x00, 0x00, 0x00,
  0x00, 0x00, 0x00, 0x00, 0x00, 0x00, 0x00, 0x00, 0x00, 0x00, 0x00, 0x00,
  0x00, 0x00, 0x00, 0x00, 0x00, 0x00, 0x00, 0x00, 0x00, 0x00, 0x00, 0x00,
  0x00, 0x00, 0x00, 0x00, 0x00, 0x00, 0x00, 0x00, 0x20, 0x00, 0x00, 0x00,
  0x5f, 0x70, 0x0e, 0x3b, 0xa8, 0x81, 0xa5, 0x3a, 0x86, 0x60, 0xc6, 0x3a,
  0x19, 0x4b, 0x20, 0x3b, 0x67, 0x8a, 0xed, 0x3a, 0x05, 0xe7, 0xc8, 0x3a,
  0x53, 0x78, 0x11, 0x3b, 0xbb, 0x18, 0xe1, 0x3a, 0xca, 0xe4, 0xf5, 0x3a,
  0x51, 0xe4, 0x13, 0x3b, 0xdf, 0x47, 0x06, 0x3b, 0xba, 0x8a, 0x00, 0x3b,
  0xea, 0x4f, 0x42, 0x3b, 0xd5, 0x37, 0xd4, 0x3a, 0x48, 0xf0, 0x5a, 0x3b,
  0x09, 0xfb, 0xd0, 0x3a, 0xd4, 0x77, 0xd2, 0x3a, 0x9e, 0xd0, 0xa5, 0x3a,
  0x87, 0x2c, 0x05, 0x3b, 0x85, 0x65, 0x2b, 0x3b, 0x4a, 0x43, 0x34, 0x3b,
  0xd0, 0x25, 0x2c, 0x3b, 0x43, 0xae, 0x0e, 0x3b, 0x20, 0xc9, 0xa4, 0x3a,
  0x50, 0x37, 0xb7, 0x3a, 0x7e, 0xc8, 0xf8, 0x3a, 0x08, 0x79, 0x70, 0x3a,
  0xf5, 0x61, 0x92, 0x3a, 0x30, 0x40, 0x06, 0x3b, 0xec, 0xcb, 0x35, 0x3b,
  0xa0, 0xfc, 0x1f, 0x3b, 0x81, 0xf6, 0x4e, 0x3b, 0xb7, 0x00, 0x00, 0x00,
  0x66, 0x75, 0x6e, 0x63, 0x74, 0x69, 0x6f, 0x6e, 0x61, 0x6c, 0x5f, 0x31,
  0x2f, 0x62, 0x61, 0x74, 0x63, 0x68, 0x5f, 0x6e, 0x6f, 0x72, 0x6d, 0x61,
  0x6c, 0x69, 0x7a, 0x61, 0x74, 0x69, 0x6f, 0x6e, 0x5f, 0x31, 0x5f, 0x32,
  0x2f, 0x62, 0x61, 0x74, 0x63, 0x68, 0x6e, 0x6f, 0x72, 0x6d, 0x2f, 0x6d,
  0x75, 0x6c, 0x5f, 0x31, 0x3b, 0x66, 0x75, 0x6e, 0x63, 0x74, 0x69, 0x6f,
  0x6e, 0x61, 0x6c, 0x5f, 0x31, 0x2f, 0x63, 0x6f, 0x6e, 0x76, 0x31, 0x64,
  0x5f, 0x31, 0x5f, 0x32, 0x2f, 0x63, 0x6f, 0x6e, 0x76, 0x6f, 0x6c, 0x75,
  0x74, 0x69, 0x6f, 0x6e, 0x2f, 0x53, 0x71, 0x75, 0x65, 0x65, 0x7a, 0x65,
  0x3b, 0x66, 0x75, 0x6e, 0x63, 0x74, 0x69, 0x6f, 0x6e, 0x61, 0x6c, 0x5f,
  0x31, 0x2f, 0x62, 0x61, 0x74, 0x63, 0x68, 0x5f, 0x6e, 0x6f, 0x72, 0x6d,
  0x61, 0x6c, 0x69, 0x7a, 0x61, 0x74, 0x69, 0x6f, 0x6e, 0x5f, 0x31, 0x5f,
  0x32, 0x2f, 0x62, 0x61, 0x74, 0x63, 0x68, 0x6e, 0x6f, 0x72, 0x6d, 0x2f,
  0x6d, 0x75, 0x6c, 0x3b, 0x66, 0x75, 0x6e, 0x63, 0x74, 0x69, 0x6f, 0x6e,
  0x61, 0x6c, 0x5f, 0x31, 0x2f, 0x63, 0x6f, 0x6e, 0x76, 0x31, 0x64, 0x5f,
  0x31, 0x5f, 0x32, 0x2f, 0x63, 0x6f, 0x6e, 0x76, 0x6f, 0x6c, 0x75, 0x74,
  0x69, 0x6f, 0x6e, 0x00, 0x04, 0x00, 0x00, 0x00, 0x20, 0x00, 0x00, 0x00,
  0x01, 0x00, 0x00, 0x00, 0x0a, 0x00, 0x00, 0x00, 0x10, 0x00, 0x00, 0x00,
  0xaa, 0xf6, 0xff, 0xff, 0x00, 0x00, 0x00, 0x01, 0x14, 0x00, 0x00, 0x00,
  0xa4, 0x01, 0x00, 0x00, 0x0c, 0x00, 0x00, 0x00, 0x00, 0x00, 0x00, 0x02,
  0xe0, 0x02, 0x00, 0x00, 0x2c, 0xf6, 0xff, 0xff, 0x08, 0x00, 0x00, 0x00,
  0x08, 0x01, 0x00, 0x00, 0x20, 0x00, 0x00, 0x00, 0x00, 0x00, 0x00, 0x00,
  0x00, 0x00, 0x00, 0x00, 0x00, 0x00, 0x00, 0x00, 0x00, 0x00, 0x00, 0x00,
  0x00, 0x00, 0x00, 0x00, 0x00, 0x00, 0x00, 0x00, 0x00, 0x00, 0x00, 0x00,
  0x00, 0x00, 0x00, 0x00, 0x00, 0x00, 0x00, 0x00, 0x00, 0x00, 0x00, 0x00,
  0x00, 0x00, 0x00, 0x00, 0x00, 0x00, 0x00, 0x00, 0x00, 0x00, 0x00, 0x00,
  0x00, 0x00, 0x00, 0x00, 0x00, 0x00, 0x00, 0x00, 0x00, 0x00, 0x00, 0x00,
  0x00, 0x00, 0x00, 0x00, 0x00, 0x00, 0x00, 0x00, 0x00, 0x00, 0x00, 0x00,
  0x00, 0x00, 0x00, 0x00, 0x00, 0x00, 0x00, 0x00, 0x00, 0x00, 0x00, 0x00,
  0x00, 0x00, 0x00, 0x00, 0x00, 0x00, 0x00, 0x00, 0x00, 0x00, 0x00, 0x00,
  0x00, 0x00, 0x00, 0x00, 0x00, 0x00, 0x00, 0x00, 0x00, 0x00, 0x00, 0x00,
  0x00, 0x00, 0x00, 0x00, 0x00, 0x00, 0x00, 0x00, 0x00, 0x00, 0x00, 0x00,
  0x00, 0x00, 0x00, 0x00, 0x00, 0x00, 0x00, 0x00, 0x00, 0x00, 0x00, 0x00,
  0x00, 0x00, 0x00, 0x00, 0x00, 0x00, 0x00, 0x00, 0x00, 0x00, 0x00, 0x00,
  0x00, 0x00, 0x00, 0x00, 0x00, 0x00, 0x00, 0x00, 0x00, 0x00, 0x00, 0x00,
  0x00, 0x00, 0x00, 0x00, 0x00, 0x00, 0x00, 0x00, 0x00, 0x00, 0x00, 0x00,
  0x00, 0x00, 0x00, 0x00, 0x00, 0x00, 0x00, 0x00, 0x00, 0x00, 0x00, 0x00,
  0x00, 0x00, 0x00, 0x00, 0x00, 0x00, 0x00, 0x00, 0x00, 0x00, 0x00, 0x00,
  0x00, 0x00, 0x00, 0x00, 0x00, 0x00, 0x00, 0x00, 0x00, 0x00, 0x00, 0x00,
  0x00, 0x00, 0x00, 0x00, 0x00, 0x00, 0x00, 0x00, 0x00, 0x00, 0x00, 0x00,
  0x00, 0x00, 0x00, 0x00, 0x00, 0x00, 0x00, 0x00, 0x00, 0x00, 0x00, 0x00,
  0x00, 0x00, 0x00, 0x00, 0x00, 0x00, 0x00, 0x00, 0x00, 0x00, 0x00, 0x00,
  0x00, 0x00, 0x00, 0x00, 0x00, 0x00, 0x00, 0x00, 0x00, 0x00, 0x00, 0x00,
  0x20, 0x00, 0x00, 0x00, 0x7b, 0x2b, 0x51, 0x39, 0x52, 0x0b, 0xf3, 0x38,
  0x3a, 0xa8, 0x11, 0x39, 0x8a, 0x63, 0x6b, 0x39, 0xaa, 0x69, 0x2e, 0x39,
  0xe9, 0x82, 0x13, 0x39, 0xf6, 0x9e, 0x55, 0x39, 0x9b, 0x46, 0x25, 0x39,
  0xc3, 0x8b, 0x34, 0x39, 0x69, 0x2d, 0x59, 0x39, 0x8c, 0x30, 0x45, 0x39,
  0x20, 0xc3, 0x3c, 0x39, 0x2a, 0xac, 0x8e, 0x39, 0xe1, 0xd1, 0x1b, 0x39,
  0x1b, 0xc1, 0xa0, 0x39, 0x57, 0x71, 0x19, 0x39, 0xef, 0x88, 0x1a, 0x39,
  0x46, 0x7f, 0xf3, 0x38, 0x75, 0x90, 0x43, 0x39, 0x99, 0xb1, 0x7b, 0x39,
  0x5d, 0x5b, 0x84, 0x39, 0xfb, 0xcb, 0x7c, 0x39, 0x5e, 0x86, 0x51, 0x39,
  0x57, 0xfc, 0xf1, 0x38, 0x78, 0x86, 0x06, 0x39, 0xe3, 0xaa, 0x36, 0x39,
  0xcf, 0x90, 0xb0, 0x38, 0x0c, 0xf6, 0xd6, 0x38, 0x43, 0x25, 0x45, 0x39,
  0xa7, 0x7b, 0x85, 0x39, 0x4d, 0xf0, 0x6a, 0x39, 0x14, 0xf6, 0x97, 0x39,
  0x40, 0x01, 0x00, 0x00, 0x66, 0x75, 0x6e, 0x63, 0x74, 0x69, 0x6f, 0x6e,
  0x61, 0x6c, 0x5f, 0x31, 0x2f, 0x61, 0x63, 0x74, 0x69, 0x76, 0x61, 0x74,
  0x69, 0x6f, 0x6e, 0x5f, 0x31, 0x5f, 0x32, 0x2f, 0x52, 0x65, 0x6c, 0x75,
  0x3b, 0x66, 0x75, 0x6e, 0x63, 0x74, 0x69, 0x6f, 0x6e, 0x61, 0x6c, 0x5f,
  0x31, 0x2f, 0x62, 0x61, 0x74, 0x63, 0x68, 0x5f, 0x6e, 0x6f, 0x72, 0x6d,
  0x61, 0x6c, 0x69, 0x7a, 0x61, 0x74, 0x69, 0x6f, 0x6e, 0x5f, 0x31, 0x5f,
  0x32, 0x2f, 0x62, 0x61, 0x74, 0x63, 0x68, 0x6e, 0x6f, 0x72, 0x6d, 0x2f,
  0x61, 0x64, 0x64, 0x5f, 0x31, 0x3b, 0x66, 0x75, 0x6e, 0x63, 0x74, 0x69,
  0x6f, 0x6e, 0x61, 0x6c, 0x5f, 0x31, 0x2f, 0x63, 0x6f, 0x6e, 0x76, 0x31,
  0x64, 0x5f, 0x31, 0x5f, 0x32, 0x2f, 0x63, 0x6f, 0x6e, 0x76, 0x6f, 0x6c,
  0x75, 0x74, 0x69, 0x6f, 0x6e, 0x2f, 0x53, 0x71, 0x75, 0x65, 0x65, 0x7a,
  0x65, 0x3b, 0x66, 0x75, 0x6e, 0x63, 0x74, 0x69, 0x6f, 0x6e, 0x61, 0x6c,
  0x5f, 0x31, 0x2f, 0x62, 0x61, 0x74, 0x63, 0x68, 0x5f, 0x6e, 0x6f, 0x72,
  0x6d, 0x61, 0x6c, 0x69, 0x7a, 0x61, 0x74, 0x69, 0x6f, 0x6e, 0x5f, 0x31,
  0x5f, 0x32, 0x2f, 0x62, 0x61, 0x74, 0x63, 0x68, 0x6e, 0x6f, 0x72, 0x6d,
  0x2f, 0x6d, 0x75, 0x6c, 0x5f, 0x31, 0x3b, 0x66, 0x75, 0x6e, 0x63, 0x74,
  0x69, 0x6f, 0x6e, 0x61, 0x6c, 0x5f, 0x31, 0x2f, 0x62, 0x61, 0x74, 0x63,
  0x68, 0x5f, 0x6e, 0x6f, 0x72, 0x6d, 0x61, 0x6c, 0x69, 0x7a, 0x61, 0x74,
  0x69, 0x6f, 0x6e, 0x5f, 0x31, 0x5f, 0x32, 0x2f, 0x62, 0x61, 0x74, 0x63,
  0x68, 0x6e, 0x6f, 0x72, 0x6d, 0x2f, 0x6d, 0x75, 0x6c, 0x3b, 0x66, 0x75,
  0x6e, 0x63, 0x74, 0x69, 0x6f, 0x6e, 0x61, 0x6c, 0x5f, 0x31, 0x2f, 0x62,
  0x61, 0x74, 0x63, 0x68, 0x5f, 0x6e, 0x6f, 0x72, 0x6d, 0x61, 0x6c, 0x69,
  0x7a, 0x61, 0x74, 0x69, 0x6f, 0x6e, 0x5f, 0x31, 0x5f, 0x32, 0x2f, 0x62,
  0x61, 0x74, 0x63, 0x68, 0x6e, 0x6f, 0x72, 0x6d, 0x2f, 0x73, 0x75, 0x62,
  0x3b, 0x66, 0x75, 0x6e, 0x63, 0x74, 0x69, 0x6f, 0x6e, 0x61, 0x6c, 0x5f,
  0x31, 0x2f, 0x63, 0x6f, 0x6e, 0x76, 0x31, 0x64, 0x5f, 0x31, 0x5f, 0x32,
  0x2f, 0x63, 0x6f, 0x6e, 0x76, 0x6f, 0x6c, 0x75, 0x74, 0x69, 0x6f, 0x6e,
  0x00, 0x00, 0x00, 0x00, 0x01, 0x00, 0x00, 0x00, 0x20, 0x00, 0x00, 0x00,
  0xaa, 0xf9, 0xff, 0xff, 0x00, 0x00, 0x00, 0x01, 0x14, 0x00, 0x00, 0x00,
  0xa8, 0x01, 0x00, 0x00, 0x0b, 0x00, 0x00, 0x00, 0x00, 0x00, 0x00, 0x09,
  0xbc, 0x01, 0x00, 0x00, 0x2c, 0xf9, 0xff, 0xff, 0x08, 0x00, 0x00, 0x00,
  0x0c, 0x01, 0x00, 0x00, 0x20, 0x00, 0x00, 0x00, 0x00, 0x00, 0x00, 0x00,
  0x00, 0x00, 0x00, 0x00, 0x00, 0x00, 0x00, 0x00, 0x00, 0x00, 0x00, 0x00,
  0x00, 0x00, 0x00, 0x00, 0x00, 0x00, 0x00, 0x00, 0x00, 0x00, 0x00, 0x00,
  0x00, 0x00, 0x00, 0x00, 0x00, 0x00, 0x00, 0x00, 0x00, 0x00, 0x00, 0x00,
  0x00, 0x00, 0x00, 0x00, 0x00, 0x00, 0x00, 0x00, 0x00, 0x00, 0x00, 0x00,
  0x00, 0x00, 0x00, 0x00, 0x00, 0x00, 0x00, 0x00, 0x00, 0x00, 0x00, 0x00,
  0x00, 0x00, 0x00, 0x00, 0x00, 0x00, 0x00, 0x00, 0x00, 0x00, 0x00, 0x00,
  0x00, 0x00, 0x00, 0x00, 0x00, 0x00, 0x00, 0x00, 0x00, 0x00, 0x00, 0x00,
  0x00, 0x00, 0x00, 0x00, 0x00, 0x00, 0x00, 0x00, 0x00, 0x00, 0x00, 0x00,
  0x00, 0x00, 0x00, 0x00, 0x00, 0x00, 0x00, 0x00, 0x00, 0x00, 0x00, 0x00,
  0x00, 0x00, 0x00, 0x00, 0x00, 0x00, 0x00, 0x00, 0x00, 0x00, 0x00, 0x00,
  0x00, 0x00, 0x00, 0x00, 0x00, 0x00, 0x00, 0x00, 0x00, 0x00, 0x00, 0x00,
  0x00, 0x00, 0x00, 0x00, 0x00, 0x00, 0x00, 0x00, 0x00, 0x00, 0x00, 0x00,
  0x00, 0x00, 0x00, 0x00, 0x00, 0x00, 0x00, 0x00, 0x00, 0x00, 0x00, 0x00,
  0x00, 0x00, 0x00, 0x00, 0x00, 0x00, 0x00, 0x00, 0x00, 0x00, 0x00, 0x00,
  0x00, 0x00, 0x00, 0x00, 0x00, 0x00, 0x00, 0x00, 0x00, 0x00, 0x00, 0x00,
  0x00, 0x00, 0x00, 0x00, 0x00, 0x00, 0x00, 0x00, 0x00, 0x00, 0x00, 0x00,
  0x00, 0x00, 0x00, 0x00, 0x00, 0x00, 0x00, 0x00, 0x00, 0x00, 0x00, 0x00,
  0x00, 0x00, 0x00, 0x00, 0x00, 0x00, 0x00, 0x00, 0x00, 0x00, 0x00, 0x00,
  0x00, 0x00, 0x00, 0x00, 0x00, 0x00, 0x00, 0x00, 0x00, 0x00, 0x00, 0x00,
  0x00, 0x00, 0x00, 0x00, 0x00, 0x00, 0x00, 0x00, 0x00, 0x00, 0x00, 0x00,
  0x00, 0x00, 0x00, 0x00, 0x00, 0x00, 0x00, 0x00, 0x00, 0x00, 0x00, 0x00,
  0x00, 0x00, 0x00, 0x00, 0x20, 0x00, 0x00, 0x00, 0x61, 0x7a, 0x38, 0x3b,
  0x6f, 0x05, 0x28, 0x3b, 0x36, 0xb6, 0x20, 0x3b, 0x81, 0x09, 0x31, 0x3b,
  0x84, 0x75, 0x3d, 0x3b, 0xb9, 0x6e, 0x4d, 0x3b, 0x0d, 0xd6, 0x21, 0x3b,
  0xa9, 0x2b, 0x33, 0x3b, 0xc7, 0x3c, 0x51, 0x3b, 0xd7, 0x0b, 0x26, 0x3b,
  0x29, 0xb1, 0x16, 0x3b, 0x23, 0x77, 0x35, 0x3b, 0x36, 0xeb, 0x28, 0x3b,
  0x2b, 0x0e, 0x26, 0x3b, 0x2d, 0x41, 0x4c, 0x3b, 0x9b, 0xd9, 0x1c, 0x3b,
  0x58, 0x8a, 0x4a, 0x3b, 0xec, 0x10, 0x46, 0x3b, 0x52, 0x72, 0x26, 0x3b,
  0x4d, 0x96, 0x3a, 0x3b, 0x4b, 0x71, 0x3b, 0x3b, 0xaf, 0xf4, 0x1b, 0x3b,
  0xbf, 0x6f, 0x29, 0x3b, 0x8d, 0xdb, 0x26, 0x3b, 0x0f, 0xe1, 0x24, 0x3b,
  0x2b, 0x2d, 0x58, 0x3b, 0xe8, 0x1d, 0x72, 0x3b, 0xe0, 0x50, 0x29, 0x3b,
  0x14, 0x83, 0x1c, 0x3b, 0xeb, 0x1a, 0x3e, 0x3b, 0x22, 0x91, 0x4b, 0x3b,
  0x88, 0xab, 0x44, 0x3b, 0x1b, 0x00, 0x00, 0x00, 0x66, 0x75, 0x6e, 0x63,
  0x74, 0x69, 0x6f, 0x6e, 0x61, 0x6c, 0x5f, 0x31, 0x2f, 0x64, 0x65, 0x6e,
  0x73, 0x65, 0x5f, 0x31, 0x2f, 0x4d, 0x61, 0x74, 0x4d, 0x75, 0x6c, 0x00,
  0x02, 0x00, 0x00, 0x00, 0x20, 0x00, 0x00, 0x00, 0x20, 0x00, 0x00, 0x00,
  0x8a, 0xfb, 0xff, 0xff, 0x00, 0x00, 0x00, 0x01, 0x14, 0x00, 0x00, 0x00,
  0xa8, 0x01, 0x00, 0x00, 0x0a, 0x00, 0x00, 0x00, 0x00, 0x00, 0x00, 0x02,
  0xd8, 0x01, 0x00, 0x00, 0x0c, 0xfb, 0xff, 0xff, 0x08, 0x00, 0x00, 0x00,
  0x0c, 0x01, 0x00, 0x00, 0x20, 0x00, 0x00, 0x00, 0x00, 0x00, 0x00, 0x00,
  0x00, 0x00, 0x00, 0x00, 0x00, 0x00, 0x00, 0x00, 0x00, 0x00, 0x00, 0x00,
  0x00, 0x00, 0x00, 0x00, 0x00, 0x00, 0x00, 0x00, 0x00, 0x00, 0x00, 0x00,
  0x00, 0x00, 0x00, 0x00, 0x00, 0x00, 0x00, 0x00, 0x00, 0x00, 0x00, 0x00,
  0x00, 0x00, 0x00, 0x00, 0x00, 0x00, 0x00, 0x00, 0x00, 0x00, 0x00, 0x00,
  0x00, 0x00, 0x00, 0x00, 0x00, 0x00, 0x00, 0x00, 0x00, 0x00, 0x00, 0x00,
  0x00, 0x00, 0x00, 0x00, 0x00, 0x00, 0x00, 0x00, 0x00, 0x00, 0x00, 0x00,
  0x00, 0x00, 0x00, 0x00, 0x00, 0x00, 0x00, 0x00, 0x00, 0x00, 0x00, 0x00,
  0x00, 0x00, 0x00, 0x00, 0x00, 0x00, 0x00, 0x00, 0x00, 0x00, 0x00, 0x00,
  0x00, 0x00, 0x00, 0x00, 0x00, 0x00, 0x00, 0x00, 0x00, 0x00, 0x00, 0x00,
